TRT-100300-MinMaxCalibration
images: 3c010204
/model.0/conv/Conv_output_0: 3f95bba4
/model.0/act/Sigmoid_output_0: 3c010204
/model.0/act/Mul_output_0: 3f8fd3e3
/model.1/conv/Conv_output_0: 3f69c2db
/model.1/act/Sigmoid_output_0: 3c010204
/model.1/act/Mul_output_0: 3f211033
/model.2/cv1/conv/Conv_output_0: 3f04fd90
/model.2/cv1/act/Sigmoid_output_0: 3c010201
/model.2/cv1/act/Mul_output_0: 3df2a8d0
(Unnamed Layer* 819) [Constant]_output: 0
/model.23/dfl/Transpose_output_0: 3dd1be0a
/model.23/cv3.2/cv3.2.0/cv3.2.0.0/act/Mul_output_0: 3da2560c
/model.23/Reshape_9_output_0: 3e9f3e7d
/model.22/cv2/act/Sigmoid_output_0: 3c01017b
/model.23/Transpose_output_0: 3f204081
/model.2/Split_output_0: 3df2a8d0
/model.22/m.1/m/m.1/cv2/act/Sigmoid_output_0: 3c010202
/model.23/Reshape_13_output_0: 3e1d3a75
ONNXTRT_Broadcast_292_output: 3b810204
/model.2/Split_output_1: 3dba04d7
/model.2/m.0/cv1/conv/Conv_output_0: 3de67ff8
/model.2/m.0/cv2/conv/Conv_output_0: 3e4b529a
/model.2/m.0/cv1/act/Sigmoid_output_0: 3c003e32
/model.2/m.0/cv2/act/Sigmoid_output_0: 3c0100dc
/model.2/m.0/cv1/act/Mul_output_0: 3d243652
/model.2/m.0/cv2/act/Mul_output_0: 3da58360
/model.2/m.0/m/m.0/cv1/conv/Conv_output_0: 3e1a22e8
/model.2/m.0/m/m.0/cv1/act/Sigmoid_output_0: 3c0101a8
/model.2/m.0/m/m.0/cv1/act/Mul_output_0: 3db851da
/model.2/m.0/m/m.0/cv2/conv/Conv_output_0: 3de10b29
/model.2/m.0/m/m.0/cv2/act/Sigmoid_output_0: 3c00e18f
/model.2/m.0/m/m.0/cv2/act/Mul_output_0: 3d5f1800
/model.2/m.0/m/m.0/Add_output_0: 3d82c3d8
/model.2/m.0/m/m.1/cv1/conv/Conv_output_0: 3dea3adb
/model.2/m.0/m/m.1/cv1/act/Sigmoid_output_0: 3c01017a
/model.2/m.0/m/m.1/cv1/act/Mul_output_0: 3db1ba69
/model.2/m.0/m/m.1/cv2/conv/Conv_output_0: 3da3721d
/model.2/m.0/m/m.1/cv2/act/Sigmoid_output_0: 3c00fc43
/model.2/m.0/m/m.1/cv2/act/Mul_output_0: 3d8b73da
/model.2/m.0/m/m.1/Add_output_0: 3d9d5232
/model.2/m.0/Concat_output_0: 3da58360
/model.2/m.0/cv3/conv/Conv_output_0: 3e12a69c
/model.2/m.0/cv3/act/Sigmoid_output_0: 3c01003c
/model.2/m.0/cv3/act/Mul_output_0: 3d9e624c
/model.2/m.1/cv1/conv/Conv_output_0: 3d0022ef
/model.2/m.1/cv2/conv/Conv_output_0: 3db1b000
/model.2/m.1/cv1/act/Sigmoid_output_0: 3bf0ff77
/model.2/m.1/cv2/act/Sigmoid_output_0: 3c00dc3b
/model.2/m.1/cv1/act/Mul_output_0: 3c9fb0dc
/model.2/m.1/cv2/act/Mul_output_0: 3d5a2945
/model.2/m.1/m/m.0/cv1/conv/Conv_output_0: 3d8a9e09
/model.2/m.1/m/m.0/cv1/act/Sigmoid_output_0: 3c00b106
/model.2/m.1/m/m.0/cv1/act/Mul_output_0: 3d414d36
/model.2/m.1/m/m.0/cv2/conv/Conv_output_0: 3d6bfdaa
/model.2/m.1/m/m.0/cv2/act/Sigmoid_output_0: 3c005c43
/model.2/m.1/m/m.0/cv2/act/Mul_output_0: 3d29be1c
/model.2/m.1/m/m.0/Add_output_0: 3d4813db
/model.2/m.1/m/m.1/cv1/conv/Conv_output_0: 3d2eca7f
/model.2/m.1/m/m.1/cv1/act/Sigmoid_output_0: 3bfa0ad8
/model.2/m.1/m/m.1/cv1/act/Mul_output_0: 3cd76087
/model.2/m.1/m/m.1/cv2/conv/Conv_output_0: 3d9846ee
/model.2/m.1/m/m.1/cv2/act/Sigmoid_output_0: 3c00b1f5
/model.2/m.1/m/m.1/cv2/act/Mul_output_0: 3d41ae9e
/model.2/m.1/m/m.1/Add_output_0: 3d54d150
/model.2/m.1/Concat_output_0: 3d5a2945
/model.2/m.1/cv3/conv/Conv_output_0: 3dcde7e8
/model.2/m.1/cv3/act/Sigmoid_output_0: 3c00f6bd
/model.2/m.1/cv3/act/Mul_output_0: 3d80abf9
/model.2/Concat_output_0: 3df2a8d0
/model.2/cv2/conv/Conv_output_0: 3dd7ad06
/model.2/cv2/act/Sigmoid_output_0: 3bff6860
/model.2/cv2/act/Mul_output_0: 3d125be1
/model.3/conv/Conv_output_0: 3d90d62c
/model.3/act/Sigmoid_output_0: 3c007a86
/model.3/act/Mul_output_0: 3d306739
/model.4/cv1/conv/Conv_output_0: 3dc74d92
/model.4/cv1/act/Sigmoid_output_0: 3c00dd53
/model.4/cv1/act/Mul_output_0: 3d5b1dd3
/model.23/cv3.2/cv3.2.1/cv3.2.1.0/act/Mul_output_0: 3e320af4
ONNXTRT_ShapeShuffle_289_output: 3c010204
/model.22/cv2/conv/Conv_output_0: 3db1f34b
/model.23/Split_1_output_0: 3dd1be0a
/model.23/Unsqueeze_6_output_0: 3e9f3e7d
/model.23/dfl/Reshape_output_0: 3dd1be0a
/model.4/Split_output_0: 3d5b1dd3
/model.22/m.1/cv2/conv/Conv_output_0: 3d1996d4
ONNXTRT_ShapeShuffle_373_output: 3c010204
/model.23/dfl/conv/Conv_output_0: 3dd9ae27
/model.4/Split_output_1: 3d380b7b
/model.4/m.0/cv1/conv/Conv_output_0: 3d11e72f
/model.4/m.0/cv2/conv/Conv_output_0: 3d3e296b
/model.4/m.0/cv1/act/Sigmoid_output_0: 3bff3f3a
/model.4/m.0/cv2/act/Sigmoid_output_0: 3c0096cc
/model.4/m.0/cv1/act/Mul_output_0: 3d10565f
/model.4/m.0/cv2/act/Mul_output_0: 3d381a87
/model.4/m.0/m/m.0/cv1/conv/Conv_output_0: 3d3e3fa3
/model.4/m.0/m/m.0/cv1/act/Sigmoid_output_0: 3bff2830
/model.4/m.0/m/m.0/cv1/act/Mul_output_0: 3d0f417c
/model.4/m.0/m/m.0/cv2/conv/Conv_output_0: 3d471044
/model.4/m.0/m/m.0/cv2/act/Sigmoid_output_0: 3c00b677
/model.4/m.0/m/m.0/cv2/act/Mul_output_0: 3d439499
/model.4/m.0/m/m.0/Add_output_0: 3d774124
/model.4/m.0/m/m.1/cv1/conv/Conv_output_0: 3d76d532
/model.4/m.0/m/m.1/cv1/act/Sigmoid_output_0: 3c00a508
/model.4/m.0/m/m.1/cv1/act/Mul_output_0: 3d3cc79b
/model.4/m.0/m/m.1/cv2/conv/Conv_output_0: 3db8e2b0
/model.4/m.0/m/m.1/cv2/act/Sigmoid_output_0: 3c0101ab
/model.4/m.0/m/m.1/cv2/act/Mul_output_0: 3db8e231
/model.4/m.0/m/m.1/Add_output_0: 3db33579
/model.4/m.0/Concat_output_0: 3db33579
/model.4/m.0/cv3/conv/Conv_output_0: 3d68879b
/model.4/m.0/cv3/act/Sigmoid_output_0: 3c008c1f
/model.4/m.0/cv3/act/Mul_output_0: 3d34fbec
/model.4/m.1/cv1/conv/Conv_output_0: 3d53c6b9
/model.4/m.1/cv2/conv/Conv_output_0: 3df8ec97
/model.4/m.1/cv1/act/Sigmoid_output_0: 3bf8b5da
/model.4/m.1/cv2/act/Sigmoid_output_0: 3c00f949
/model.4/m.1/cv1/act/Mul_output_0: 3ccc4c94
/model.4/m.1/cv2/act/Mul_output_0: 3d84df1d
/model.4/m.1/m/m.0/cv1/conv/Conv_output_0: 3d3cca0e
/model.4/m.1/m/m.0/cv1/act/Sigmoid_output_0: 3c004a3f
/model.4/m.1/m/m.0/cv1/act/Mul_output_0: 3d2651a0
/model.4/m.1/m/m.0/cv2/conv/Conv_output_0: 3d60ba00
/model.4/m.1/m/m.0/cv2/act/Sigmoid_output_0: 3c00e2f2
/model.4/m.1/m/m.0/cv2/act/Mul_output_0: 3d6083e0
/model.4/m.1/m/m.0/Add_output_0: 3d59bdb0
/model.4/m.1/m/m.1/cv1/conv/Conv_output_0: 3d52539b
/model.4/m.1/m/m.1/cv1/act/Sigmoid_output_0: 3c0084aa
/model.4/m.1/m/m.1/cv1/act/Mul_output_0: 3d32f7b6
/model.4/m.1/m/m.1/cv2/conv/Conv_output_0: 3db3fabd
/model.4/m.1/m/m.1/cv2/act/Sigmoid_output_0: 3c01018b
/model.4/m.1/m/m.1/cv2/act/Mul_output_0: 3db3fa15
/model.4/m.1/m/m.1/Add_output_0: 3db884a3
/model.4/m.1/Concat_output_0: 3db884a3
/model.4/m.1/cv3/conv/Conv_output_0: 3d8ac8f7
/model.4/m.1/cv3/act/Sigmoid_output_0: 3c00cded
/model.4/m.1/cv3/act/Mul_output_0: 3d4fb628
/model.4/Concat_output_0: 3d5b1dd3
/model.4/cv2/conv/Conv_output_0: 3d9cb50e
/model.4/cv2/act/Sigmoid_output_0: 3c00c6c9
/model.4/cv2/act/Mul_output_0: 3d4b86ba
/model.5/conv/Conv_output_0: 3d82fd87
/model.5/act/Sigmoid_output_0: 3c00c7da
/model.5/act/Mul_output_0: 3d4c1ed5
/model.6/cv1/conv/Conv_output_0: 3d99331a
/model.6/cv1/act/Sigmoid_output_0: 3c00f83a
/model.6/cv1/act/Mul_output_0: 3d830098
/model.23/Add_10_output_0: 3f2727fb
/model.22/Split_output_0: 3d4d0083
/model.23/dfl/Softmax_output_0: 3bf8bfb9
/model.23/Expand_2_output_0: 3e9f3e7d
/model.23/ConstantOfShape_2_output_0: 0
/model.23/dfl/Reshape_1_output_0: 3dd9ae27
/model.6/Split_output_0: 3d6d1581
/model.22/m.1/m/m.1/cv1/act/Mul_output_0: 3d5c6753
ONNXTRT_Broadcast_532_output: 3e810204
ONNXTRT_Broadcast_386_output: 3b810204
/model.6/Split_output_1: 3d830098
/model.6/m.0/cv1/conv/Conv_output_0: 3d3324f6
/model.6/m.0/cv2/conv/Conv_output_0: 3d647bf6
/model.6/m.0/cv1/act/Sigmoid_output_0: 3c0082b1
/model.6/m.0/cv2/act/Sigmoid_output_0: 3c00e32f
/model.6/m.0/cv1/act/Mul_output_0: 3d327428
/model.6/m.0/cv2/act/Mul_output_0: 3d60c461
/model.6/m.0/m/m.0/cv1/conv/Conv_output_0: 3d714ef4
/model.6/m.0/m/m.0/cv1/act/Sigmoid_output_0: 3c007edd
/model.6/m.0/m/m.0/cv1/act/Mul_output_0: 3d3179bd
/model.6/m.0/m/m.0/cv2/conv/Conv_output_0: 3d69b189
/model.6/m.0/m/m.0/cv2/act/Sigmoid_output_0: 3c00096a
/model.6/m.0/m/m.0/cv2/act/Mul_output_0: 3d1c41ce
/model.6/m.0/m/m.0/Add_output_0: 3d3227c8
/model.6/m.0/m/m.1/cv1/conv/Conv_output_0: 3d4e4f88
/model.6/m.0/m/m.1/cv1/act/Sigmoid_output_0: 3c006585
/model.6/m.0/m/m.1/cv1/act/Mul_output_0: 3d2ba4f4
/model.6/m.0/m/m.1/cv2/conv/Conv_output_0: 3d910983
/model.6/m.0/m/m.1/cv2/act/Sigmoid_output_0: 3c00ec19
/model.6/m.0/m/m.1/cv2/act/Mul_output_0: 3d6bd6db
/model.6/m.0/m/m.1/Add_output_0: 3d7fa026
/model.6/m.0/Concat_output_0: 3d7fa026
/model.6/m.0/cv3/conv/Conv_output_0: 3d79b34a
/model.6/m.0/cv3/act/Sigmoid_output_0: 3c00f3af
/model.6/m.0/cv3/act/Mul_output_0: 3d79978d
/model.6/m.1/cv1/conv/Conv_output_0: 3d3f896e
/model.6/m.1/cv2/conv/Conv_output_0: 3d4b63c7
/model.6/m.1/cv1/act/Sigmoid_output_0: 3c00ab38
/model.6/m.1/cv2/act/Sigmoid_output_0: 3c00c5db
/model.6/m.1/cv1/act/Mul_output_0: 3d3f0890
/model.6/m.1/cv2/act/Mul_output_0: 3d4b04ed
/model.6/m.1/m/m.0/cv1/conv/Conv_output_0: 3d682055
/model.6/m.1/m/m.0/cv1/act/Sigmoid_output_0: 3c009387
/model.6/m.1/m/m.0/cv1/act/Mul_output_0: 3d371da1
/model.6/m.1/m/m.0/cv2/conv/Conv_output_0: 3d5e97dd
/model.6/m.1/m/m.0/cv2/act/Sigmoid_output_0: 3c00e0d3
/model.6/m.1/m/m.0/cv2/act/Mul_output_0: 3d5e5e97
/model.6/m.1/m/m.0/Add_output_0: 3d73b209
/model.6/m.1/m/m.1/cv1/conv/Conv_output_0: 3d5dc0a4
/model.6/m.1/m/m.1/cv1/act/Sigmoid_output_0: 3c00bfcb
/model.6/m.1/m/m.1/cv1/act/Mul_output_0: 3d47e1bb
/model.6/m.1/m/m.1/cv2/conv/Conv_output_0: 3d7120c2
/model.6/m.1/m/m.1/cv2/act/Sigmoid_output_0: 3c00ef53
/model.6/m.1/m/m.1/cv2/act/Mul_output_0: 3d70fdd2
/model.6/m.1/m/m.1/Add_output_0: 3d912c50
/model.6/m.1/Concat_output_0: 3d912c50
/model.6/m.1/cv3/conv/Conv_output_0: 3d7cc511
/model.6/m.1/cv3/act/Sigmoid_output_0: 3c00ce87
/model.6/m.1/cv3/act/Mul_output_0: 3d501708
/model.6/Concat_output_0: 3d830098
/model.6/cv2/conv/Conv_output_0: 3d7fa98b
/model.6/cv2/act/Sigmoid_output_0: 3c00f61a
/model.6/cv2/act/Mul_output_0: 3d7f91ef
/model.7/conv/Conv_output_0: 3dcbbc9a
/model.7/act/Sigmoid_output_0: 3c0101e9
/model.7/act/Mul_output_0: 3dcbbc6f
/model.8/cv1/conv/Conv_output_0: 3dcc2295
/model.8/cv1/act/Sigmoid_output_0: 3c0101e9
/model.8/cv1/act/Mul_output_0: 3dcc226b
/model.23/Range_2_output_0: 3e9d3a75
/model.23/dfl/Softmax_output: 3bf8bfb9
/model.23/cv3.2/cv3.2.0/cv3.2.0.1/conv/Conv_output_0: 3e0a730b
/model.19/cv2/act/Sigmoid_output_0: 3c010200
/model.22/m.0/cv3/conv/Conv_output_0: 3da6a6fb
ONNXTRT_Broadcast_294_output: 3b810204
/model.8/Split_output_0: 3da49e22
/model.23/Expand_3_output_0: 3e9f3e7d
/model.19/m.1/m/m.1/Add_output_0: 3dfc7331
/model.22/m.1/cv2/act/Mul_output_0: 3d18499d
/model.8/Split_output_1: 3dcc226b
/model.8/m.0/cv1/conv/Conv_output_0: 3d7350d8
/model.8/m.0/cv2/conv/Conv_output_0: 3d9db424
/model.8/m.0/cv1/act/Sigmoid_output_0: 3c009f72
/model.8/m.0/cv2/act/Sigmoid_output_0: 3c010029
/model.8/m.0/cv1/act/Mul_output_0: 3d3ade50
/model.8/m.0/cv2/act/Mul_output_0: 3d9db1e0
/model.8/m.0/m/m.0/cv1/conv/Conv_output_0: 3d61a369
/model.8/m.0/m/m.0/cv1/act/Sigmoid_output_0: 3c007c80
/model.8/m.0/m/m.0/cv1/act/Mul_output_0: 3d30e2ac
/model.8/m.0/m/m.0/cv2/conv/Conv_output_0: 3d68e000
/model.8/m.0/m/m.0/cv2/act/Sigmoid_output_0: 3c00d31e
/model.8/m.0/m/m.0/cv2/act/Mul_output_0: 3d5322a5
/model.8/m.0/m/m.0/Add_output_0: 3d6643a4
/model.8/m.0/m/m.1/cv1/conv/Conv_output_0: 3d48c534
/model.8/m.0/m/m.1/cv1/act/Sigmoid_output_0: 3c000416
/model.8/m.0/m/m.1/cv1/act/Mul_output_0: 3d1b8c81
/model.8/m.0/m/m.1/cv2/conv/Conv_output_0: 3d8023b5
/model.8/m.0/m/m.1/cv2/act/Sigmoid_output_0: 3c00f654
/model.8/m.0/m/m.1/cv2/act/Mul_output_0: 3d80181a
/model.8/m.0/m/m.1/Add_output_0: 3d85c5c5
/model.8/m.0/Concat_output_0: 3d9db1e0
/model.8/m.0/cv3/conv/Conv_output_0: 3dab7907
/model.8/m.0/cv3/act/Sigmoid_output_0: 3c010139
/model.8/m.0/cv3/act/Mul_output_0: 3dab77fa
/model.8/m.1/cv1/conv/Conv_output_0: 3d34f0d0
/model.8/m.1/cv2/conv/Conv_output_0: 3d1c2b20
/model.8/m.1/cv1/act/Sigmoid_output_0: 3bff9b36
/model.8/m.1/cv2/act/Sigmoid_output_0: 3bfffeec
/model.8/m.1/cv1/act/Mul_output_0: 3d150629
/model.8/m.1/cv2/act/Mul_output_0: 3d1af223
/model.8/m.1/m/m.0/cv1/conv/Conv_output_0: 3d5908ac
/model.8/m.1/m/m.0/cv1/act/Sigmoid_output_0: 3c00cbc5
/model.8/m.1/m/m.0/cv1/act/Mul_output_0: 3d4e6354
/model.8/m.1/m/m.0/cv2/conv/Conv_output_0: 3d7ccd92
/model.8/m.1/m/m.0/cv2/act/Sigmoid_output_0: 3c00f4ff
/model.8/m.1/m/m.0/cv2/act/Mul_output_0: 3d7cb40f
/model.8/m.1/m/m.0/Add_output_0: 3d750df9
/model.8/m.1/m/m.1/cv1/conv/Conv_output_0: 3d9a0320
/model.8/m.1/m/m.1/cv1/act/Sigmoid_output_0: 3c00ffac
/model.8/m.1/m/m.1/cv1/act/Mul_output_0: 3d9a0055
/model.8/m.1/m/m.1/cv2/conv/Conv_output_0: 3dcdf668
/model.8/m.1/m/m.1/cv2/act/Sigmoid_output_0: 3c0101ec
/model.8/m.1/m/m.1/cv2/act/Mul_output_0: 3dcdf642
/model.8/m.1/m/m.1/Add_output_0: 3e22c8ee
/model.8/m.1/Concat_output_0: 3e22c8ee
/model.8/m.1/cv3/conv/Conv_output_0: 3d9d6e6f
/model.8/m.1/cv3/act/Sigmoid_output_0: 3c010021
/model.8/m.1/cv3/act/Mul_output_0: 3d9d6c21
/model.8/Concat_output_0: 3dcc226b
/model.8/cv2/conv/Conv_output_0: 3dc68d9c
/model.8/cv2/act/Sigmoid_output_0: 3c00f528
/model.8/cv2/act/Mul_output_0: 3d7d19e2
/model.9/cv1/conv/Conv_output_0: 3d27dcc9
/model.9/cv1/act/Sigmoid_output_0: 3c004db0
/model.9/cv1/act/Mul_output_0: 3d26f224
/model.9/m/MaxPool_output_0: 3d26f224
/model.9/m_1/MaxPool_output_0: 3d26f224
/model.9/m_2/MaxPool_output_0: 3d26f224
/model.9/Concat_output_0: 3d26f224
/model.9/cv2/conv/Conv_output_0: 3d801fde
/model.9/cv2/act/Sigmoid_output_0: 3c00f61b
/model.9/cv2/act/Mul_output_0: 3d7f947c
/model.10/cv1/conv/Conv_output_0: 3d8c9eb7
/model.10/cv1/act/Sigmoid_output_0: 3c00fca9
/model.10/cv1/act/Mul_output_0: 3d8c98e2
/model.22/m.0/cv2/conv/Conv_output_0: 3d8aff2a
/model.22/m.0/m/m.1/cv1/conv/Conv_output_0: 3d8fbaed
/model.23/Concat_15_output_0: 3e9f3e7d
/model.23/Slice_1_output_0: 3dd9ae27
/model.23/Squeeze_2_output_0_output: 3e810204
ONNXTRT_ShapeShuffle_297_output: 0
/model.10/Split_output_0: 3d866a28
/model.23/Split_1_output_1: 3e3e40b9
/model.22/m.0/m/m.0/Add_output_0: 3d977969
/model.22/m.0/Concat_output_0: 3dd38487
/model.10/Split_output_1: 3d8c98e2
/model.23/cv2.2/cv2.2.0/conv/Conv_output_0: 3dc7da1e
/model.23/Unsqueeze_9_output_0: 3e1d3a75
/model.10/m/m.0/attn/qkv/conv/Conv_output_0: 3d86d2cc
/model.22/m.1/m/m.0/cv2/act/Mul_output_0: 3d771ed2
/model.23/ConstantOfShape_1_output_0: 0
/model.23/cv2.2/cv2.2.2/Conv_output_0: 3dadb3b8
/model.22/m.0/m/m.0/cv2/act/Sigmoid_output_0: 3c00f8f5
/model.23/cv3.2/cv3.2.1/cv3.2.1.0/act/Sigmoid_output_0: 3c010204
/model.23/Reshape_1_output_0: 3e2f26c8
/model.23/cv2.1/cv2.1.0/act/Sigmoid_output_0: 3c0101f2
/model.23/Concat_22_output_0: 3f204081
/model.23/Concat_1_output_0: 3e2f26c8
/model.23/cv3.1/cv3.1.2/Conv_output_0: 3e2f26c8
/model.22/m.0/m/m.0/cv1/conv/Conv_output_0: 3d8d8a6c
/model.23/Reshape_17_output_0: 3e1d3a75
/model.22/m.0/cv2/act/Mul_output_0: 3d8af8c6
/model.23/cv3.2/cv3.2.1/cv3.2.1.1/act/Sigmoid_output_0: 3c010204
/model.22/m.1/m/m.1/cv2/conv/Conv_output_0: 3df42f62
/model.23/cv3.1/cv3.1.1/cv3.1.1.1/conv/Conv_output_0: 3e0ecba0
/model.10/m/m.0/attn/Reshape_output_0: 3d86d2cc
/model.22/m.0/cv1/act/Mul_output_0: 3d62707c
/model.23/cv3.1/cv3.1.1/cv3.1.1.0/act/Mul_output_0: 3e1da154
/model.22/m.0/m/m.0/cv1/act/Mul_output_0: 3d8d84e0
/model.22/m.0/cv1/conv/Conv_output_0: 3d62a3ee
/model.22/cv2/act/Mul_output_0: 3db1f28e
/model.23/cv3.2/cv3.2.0/cv3.2.0.0/conv/Conv_output_0: 3dcb43fb
/model.10/m/m.0/attn/Split_output_0: 3d466cd1
/model.22/m.1/m/m.0/cv2/act/Sigmoid_output_0: 3c00f28c
/model.23/Reshape_12_output_0: 3e9f3e7d
/model.23/cv3.2/cv3.2.0/cv3.2.0.1/act/Sigmoid_output_0: 3c00fb8f
/model.10/m/m.0/attn/Split_output_1: 3d73bfe5
/model.22/m.1/cv3/act/Sigmoid_output_0: 3c00ee88
/model.22/Split_output_1: 3d93351a
/model.23/Slice_output_0: 3dc93899
/model.10/m/m.0/attn/Split_output_2: 3d86d2cc
/model.10/m/m.0/attn/Transpose_output_0: 3d466cd1
/model.10/m/m.0/attn/Reshape_2_output_0: 3d86d2cc
/model.10/m/m.0/attn/MatMul_output_0: 3f4e270e
/model.10/m/m.0/attn/pe/conv/Conv_output_0: 3d21476c
/model.10/m/m.0/attn/Constant_6_output_0_output: 3ab671d7
ONNXTRT_Broadcast_output: 3ab671d7
/model.10/m/m.0/attn/Mul_1_output_0: 3e11c599
/model.10/m/m.0/attn/Softmax_output: 3bf6df71
/model.10/m/m.0/attn/Softmax_output_0: 3bf6df71
/model.23/Reshape_10_output_0: 3e9f3e7d
/model.23/Range_4_output_0: 3e193265
/model.10/m/m.0/attn/Transpose_1_output_0: 3bf6df71
/model.10/m/m.0/attn/MatMul_1_output_0: 3d8385c9
/model.10/m/m.0/attn/Reshape_1_output_0: 3d8385c9
/model.10/m/m.0/attn/Add_output_0: 3d6c33ec
/model.10/m/m.0/attn/proj/conv/Conv_output_0: 3d100d95
/model.10/m/m.0/Add_output_0: 3d85c0f2
/model.10/m/m.0/ffn/ffn.0/conv/Conv_output_0: 3d718b39
/model.10/m/m.0/ffn/ffn.0/act/Sigmoid_output_0: 3c00c6e1
/model.10/m/m.0/ffn/ffn.0/act/Mul_output_0: 3d4b9449
/model.10/m/m.0/ffn/ffn.1/conv/Conv_output_0: 3d7a2b1a
/model.10/m/m.0/Add_1_output_0: 3d859777
/model.22/m.1/m/m.0/cv1/act/Sigmoid_output_0: 3c00ff9f
/model.22/m.1/cv2/act/Sigmoid_output_0: 3bffd445
/model.10/m/m.1/attn/qkv/conv/Conv_output_0: 3dc44e2c
/model.22/m.1/m/m.0/cv1/act/Mul_output_0: 3d99a843
/model.22/m.1/Concat_output_0: 3dee4bd4
/model.19/m.1/cv3/act/Sigmoid_output_0: 3c0100f3
/model.23/cv2.1/cv2.1.2/Conv_output_0: 3dbd907f
/model.22/m.0/m/m.0/cv2/act/Mul_output_0: 3d84470b
/model.22/m.0/m/m.1/cv2/act/Sigmoid_output_0: 3c0101c3
/model.22/cv1/conv/Conv_output_0: 3d933932
/model.22/cv1/act/Mul_output_0: 3d93351a
/model.23/cv3.1/cv3.1.0/cv3.1.0.1/act/Mul_output_0: 3d4e8612
/model.23/cv3.1/cv3.1.0/cv3.1.0.1/act/Sigmoid_output_0: 3c00cbfe
/model.10/m/m.1/attn/Reshape_output_0: 3dc44e2c
/model.23/cv2.1/cv2.1.1/act/Sigmoid_output_0: 3c010204
/model.22/m.1/m/m.0/cv1/conv/Conv_output_0: 3d99ab1d
/model.22/m.0/m/m.1/cv1/act/Mul_output_0: 3d8fb5fb
/model.23/cv3.1/cv3.1.0/cv3.1.0.1/conv/Conv_output_0: 3dc138d2
/model.23/Reshape_2_output_0: 3e3e40b9
/model.20/act/Mul_output_0: 3da2048b
/model.10/m/m.1/attn/Split_output_0: 3d3df6eb
/model.23/Unsqueeze_7_output_0: 3e9f3e7d
/model.21/Concat_output_0: 3da2048b
/model.23/Range_5_output_0: 3e193265
/model.10/m/m.1/attn/Split_output_1: 3d423c26
/model.23/Expand_5_output_0: 3e1d3a75
/model.23/cv3.1/cv3.1.0/cv3.1.0.0/act/Mul_output_0: 3d990392
/model.20/act/Sigmoid_output_0: 3c010096
/model.10/m/m.1/attn/Split_output_2: 3dc44e2c
/model.10/m/m.1/attn/Transpose_output_0: 3d3df6eb
/model.10/m/m.1/attn/Reshape_2_output_0: 3dc44e2c
/model.10/m/m.1/attn/MatMul_output_0: 3f29e304
/model.10/m/m.1/attn/pe/conv/Conv_output_0: 3d366449
ONNXTRT_Broadcast_127_output: 3ab671d7
/model.10/m/m.1/attn/Mul_1_output_0: 3df04195
/model.10/m/m.1/attn/Softmax_output: 3be6d623
/model.10/m/m.1/attn/Softmax_output_0: 3be6d623
(Unnamed Layer* 977) [Constant]_output: 0
/model.20/conv/Conv_output_0: 3da20658
/model.10/m/m.1/attn/Transpose_1_output_0: 3be6d623
/model.10/m/m.1/attn/MatMul_1_output_0: 3d36aaf0
/model.10/m/m.1/attn/Reshape_1_output_0: 3d36aaf0
/model.10/m/m.1/attn/Add_output_0: 3d3df404
/model.10/m/m.1/attn/proj/conv/Conv_output_0: 3d38af78
/model.10/m/m.1/Add_output_0: 3d92586d
/model.10/m/m.1/ffn/ffn.0/conv/Conv_output_0: 3d8049aa
/model.10/m/m.1/ffn/ffn.0/act/Sigmoid_output_0: 3c00acc7
/model.10/m/m.1/ffn/ffn.0/act/Mul_output_0: 3d3fa077
/model.10/m/m.1/ffn/ffn.1/conv/Conv_output_0: 3d6cf557
/model.10/m/m.1/Add_1_output_0: 3d90ecc9
/model.10/Concat_output_0: 3d90ecc9
/model.10/cv2/conv/Conv_output_0: 3d96b643
/model.10/cv2/act/Sigmoid_output_0: 3c00cf30
/model.10/cv2/act/Mul_output_0: 3d5082f2
/model.11/Resize_output_0: 3d5082f2
/model.12/Concat_output_0: 3d7f91ef
/model.13/cv1/conv/Conv_output_0: 3d8e4fde
/model.13/cv1/act/Sigmoid_output_0: 3c00f919
/model.13/cv1/act/Mul_output_0: 3d848891
/model.19/cv2/conv/Conv_output_0: 3debd44f
/model.22/m.0/cv3/act/Sigmoid_output_0: 3c0100f0
/model.23/Reshape_8_output_0: 3e9f3e7d
/model.19/m.1/cv3/act/Mul_output_0: 3da6d15d
ONNXTRT_Broadcast_398_output: 3e810204
/model.19/m.1/m/m.1/cv2/act/Mul_output_0: 3df65b43
/model.13/Split_output_0: 3d4451f4
/model.23/Add_5_output_0: 3e010204
/model.19/m.1/cv3/conv/Conv_output_0: 3e655658
/model.19/m.1/m/m.1/cv1/act/Mul_output_0: 3d8b1826
/model.13/Split_output_1: 3d848891
/model.13/m.0/cv1/conv/Conv_output_0: 3d4f0095
/model.13/m.0/cv2/conv/Conv_output_0: 3db0dc72
/model.13/m.0/cv1/act/Sigmoid_output_0: 3bffa2d4
/model.13/m.0/cv2/act/Sigmoid_output_0: 3c010173
/model.13/m.0/cv1/act/Mul_output_0: 3d157109
/model.13/m.0/cv2/act/Mul_output_0: 3db0dbab
/model.13/m.0/m/m.0/cv1/conv/Conv_output_0: 3da15273
/model.13/m.0/m/m.0/cv1/act/Sigmoid_output_0: 3c00f823
/model.13/m.0/m/m.0/cv1/act/Mul_output_0: 3d82d89b
/model.13/m.0/m/m.0/cv2/conv/Conv_output_0: 3d72bb30
/model.13/m.0/m/m.0/cv2/act/Sigmoid_output_0: 3c00bcdb
/model.13/m.0/m/m.0/cv2/act/Mul_output_0: 3d467692
/model.13/m.0/m/m.0/Add_output_0: 3d3de464
/model.13/m.0/m/m.1/cv1/conv/Conv_output_0: 3d701a12
/model.13/m.0/m/m.1/cv1/act/Sigmoid_output_0: 3c0039d7
/model.13/m.0/m/m.1/cv1/act/Mul_output_0: 3d237b76
/model.13/m.0/m/m.1/cv2/conv/Conv_output_0: 3da0870e
/model.13/m.0/m/m.1/cv2/act/Sigmoid_output_0: 3c010071
/model.13/m.0/m/m.1/cv2/act/Mul_output_0: 3da08519
/model.13/m.0/m/m.1/Add_output_0: 3d9f894f
/model.13/m.0/Concat_output_0: 3db0dbab
/model.13/m.0/cv3/conv/Conv_output_0: 3d7e2aa7
/model.13/m.0/cv3/act/Sigmoid_output_0: 3c00c908
/model.13/m.0/cv3/act/Mul_output_0: 3d4cc969
/model.13/m.1/cv1/conv/Conv_output_0: 3d1bf901
/model.13/m.1/cv2/conv/Conv_output_0: 3d738697
/model.13/m.1/cv1/act/Sigmoid_output_0: 3bff1f63
/model.13/m.1/cv2/act/Sigmoid_output_0: 3c00f0a9
/model.13/m.1/cv1/act/Mul_output_0: 3d0ed957
/model.13/m.1/cv2/act/Mul_output_0: 3d7365d5
/model.13/m.1/m/m.0/cv1/conv/Conv_output_0: 3d5de3b7
/model.13/m.1/m/m.0/cv1/act/Sigmoid_output_0: 3c00caae
/model.13/m.1/m/m.0/cv1/act/Mul_output_0: 3d4dbe21
/model.13/m.1/m/m.0/cv2/conv/Conv_output_0: 3d95450d
/model.13/m.1/m/m.0/cv2/act/Sigmoid_output_0: 3c00f946
/model.13/m.1/m/m.0/cv2/act/Mul_output_0: 3d84d9e4
/model.13/m.1/m/m.0/Add_output_0: 3d9cb316
/model.13/m.1/m/m.1/cv1/conv/Conv_output_0: 3d837bee
/model.13/m.1/m/m.1/cv1/act/Sigmoid_output_0: 3c00cc34
/model.13/m.1/m/m.1/cv1/act/Mul_output_0: 3d4ea6e6
/model.13/m.1/m/m.1/cv2/conv/Conv_output_0: 3dd223a1
/model.13/m.1/m/m.1/cv2/act/Sigmoid_output_0: 3c010171
/model.13/m.1/m/m.1/cv2/act/Mul_output_0: 3db0b54a
/model.13/m.1/m/m.1/Add_output_0: 3dad3a18
/model.13/m.1/Concat_output_0: 3dad3a18
/model.13/m.1/cv3/conv/Conv_output_0: 3d6b667c
/model.13/m.1/cv3/act/Sigmoid_output_0: 3c00ae89
/model.13/m.1/cv3/act/Mul_output_0: 3d404f9a
/model.13/Concat_output_0: 3d848891
/model.13/cv2/conv/Conv_output_0: 3d6b13b0
/model.13/cv2/act/Sigmoid_output_0: 3c00eb77
/model.13/cv2/act/Mul_output_0: 3d6aea99
/model.14/Resize_output_0: 3d6aea99
/model.15/Concat_output_0: 3d6aea99
/model.16/cv1/conv/Conv_output_0: 3d35f3fa
/model.16/cv1/act/Sigmoid_output_0: 3bfa7097
/model.16/cv1/act/Mul_output_0: 3cdb075d
/model.22/m.0/m/m.1/Add_output_0: 3dd38487
/model.22/m.0/m/m.0/cv1/act/Sigmoid_output_0: 3c00fcf5
/model.22/m.1/cv1/act/Sigmoid_output_0: 3c00e2c2
/model.19/m.1/m/m.1/cv1/act/Sigmoid_output_0: 3c00fc20
ONNXTRT_ShapeShuffle_391_output: 0
/model.23/cv2.1/cv2.1.1/act/Mul_output_0: 3eae3ac7
/model.16/Split_output_0: 3cd02602
/model.23/cv3.2/cv3.2.0/cv3.2.0.0/act/Sigmoid_output_0: 3c01009c
/model.19/m.1/m/m.1/cv1/conv/Conv_output_0: 3dc2fcbe
/model.19/m.1/Concat_output_0: 3dfc7331
/model.16/Split_output_1: 3cdb075d
/model.16/m.0/cv1/conv/Conv_output_0: 3ce210a2
/model.16/m.0/cv2/conv/Conv_output_0: 3d3b0031
/model.16/m.0/cv1/act/Sigmoid_output_0: 3be8b112
/model.16/m.0/cv2/act/Sigmoid_output_0: 3c009e22
/model.16/m.0/cv1/act/Mul_output_0: 3c810615
/model.16/m.0/cv2/act/Mul_output_0: 3d3a6f69
/model.16/m.0/m/m.0/cv1/conv/Conv_output_0: 3d2d24d6
/model.16/m.0/m/m.0/cv1/act/Sigmoid_output_0: 3bfe26ec
/model.16/m.0/m/m.0/cv1/act/Mul_output_0: 3d04fdf1
/model.16/m.0/m/m.0/cv2/conv/Conv_output_0: 3d3e6fb1
/model.16/m.0/m/m.0/cv2/act/Sigmoid_output_0: 3bfbd15c
/model.16/m.0/m/m.0/cv2/act/Mul_output_0: 3ce935be
/model.16/m.0/m/m.0/Add_output_0: 3d0c79f3
/model.16/m.0/m/m.1/cv1/conv/Conv_output_0: 3d3b0af6
/model.16/m.0/m/m.1/cv1/act/Sigmoid_output_0: 3bfc9af4
/model.16/m.0/m/m.1/cv1/act/Mul_output_0: 3cf2b96d
/model.16/m.0/m/m.1/cv2/conv/Conv_output_0: 3d515cb9
/model.16/m.0/m/m.1/cv2/act/Sigmoid_output_0: 3c00d003
/model.16/m.0/m/m.1/cv2/act/Mul_output_0: 3d510b93
/model.16/m.0/m/m.1/Add_output_0: 3d76d9dc
/model.16/m.0/Concat_output_0: 3d76d9dc
/model.16/m.0/cv3/conv/Conv_output_0: 3d3472bd
/model.16/m.0/cv3/act/Sigmoid_output_0: 3bffb555
/model.16/m.0/cv3/act/Mul_output_0: 3d167aa7
/model.16/m.1/cv1/conv/Conv_output_0: 3d086520
/model.16/m.1/cv2/conv/Conv_output_0: 3d67a4e1
/model.16/m.1/cv1/act/Sigmoid_output_0: 3bd7db35
/model.16/m.1/cv2/act/Sigmoid_output_0: 3c00e8f1
/model.16/m.1/cv1/act/Mul_output_0: 3c304355
/model.16/m.1/cv2/act/Mul_output_0: 3d6777db
/model.16/m.1/m/m.0/cv1/conv/Conv_output_0: 3d3040ed
/model.16/m.1/m/m.0/cv1/act/Sigmoid_output_0: 3bf6e1b9
/model.16/m.1/m/m.0/cv1/act/Mul_output_0: 3cbf4495
/model.16/m.1/m/m.0/cv2/conv/Conv_output_0: 3d61d311
/model.16/m.1/m/m.0/cv2/act/Sigmoid_output_0: 3c007b00
/model.16/m.1/m/m.0/cv2/act/Mul_output_0: 3d30852a
/model.16/m.1/m/m.0/Add_output_0: 3d2b432f
/model.16/m.1/m/m.1/cv1/conv/Conv_output_0: 3d4b53f6
/model.16/m.1/m/m.1/cv1/act/Sigmoid_output_0: 3bf9d7ea
/model.16/m.1/m/m.1/cv1/act/Mul_output_0: 3cd59dea
/model.16/m.1/m/m.1/cv2/conv/Conv_output_0: 3dc38b6d
/model.16/m.1/m/m.1/cv2/act/Sigmoid_output_0: 3c0100ce
/model.16/m.1/m/m.1/cv2/act/Mul_output_0: 3da4c8f2
/model.16/m.1/m/m.1/Add_output_0: 3db21171
/model.16/m.1/Concat_output_0: 3db21171
/model.16/m.1/cv3/conv/Conv_output_0: 3e29b820
/model.16/m.1/cv3/act/Sigmoid_output_0: 3c00dc3c
/model.16/m.1/cv3/act/Mul_output_0: 3d5a2a17
/model.16/Concat_output_0: 3d5a2a17
/model.16/cv2/conv/Conv_output_0: 3d9ac226
/model.16/cv2/act/Sigmoid_output_0: 3c00515b
/model.16/cv2/act/Mul_output_0: 3d27a0e0
/model.17/conv/Conv_output_0: 3d3ee3bd
/model.23/cv2.0/cv2.0.0/conv/Conv_output_0: 3da853c6
/model.23/cv3.0/cv3.0.0/cv3.0.0.0/conv/Conv_output_0: 3d58da26
/model.17/act/Sigmoid_output_0: 3c007dcd
/model.23/cv2.0/cv2.0.0/act/Sigmoid_output_0: 3c00f617
/model.23/cv3.0/cv3.0.0/cv3.0.0.0/act/Sigmoid_output_0: 3c00da5d
/model.17/act/Mul_output_0: 3d31359a
/model.23/cv2.0/cv2.0.0/act/Mul_output_0: 3d7f898a
/model.23/cv3.0/cv3.0.0/cv3.0.0.0/act/Mul_output_0: 3d58977f
/model.18/Concat_output_0: 3d6aea99
/model.23/cv2.0/cv2.0.1/conv/Conv_output_0: 3ec1d9a6
/model.23/cv3.0/cv3.0.0/cv3.0.0.1/conv/Conv_output_0: 3d5031d0
/model.19/cv1/conv/Conv_output_0: 3d82fc99
/model.23/cv2.0/cv2.0.1/act/Sigmoid_output_0: 3c010204
/model.23/cv3.0/cv3.0.0/cv3.0.0.1/act/Sigmoid_output_0: 3c00c9ad
/model.19/cv1/act/Sigmoid_output_0: 3c00f65a
/model.23/cv2.0/cv2.0.1/act/Mul_output_0: 3ec1d9a6
/model.23/cv3.0/cv3.0.0/cv3.0.0.1/act/Mul_output_0: 3d4d2851
/model.19/cv1/act/Mul_output_0: 3d801f9b
/model.23/cv2.0/cv2.0.2/Conv_output_0: 3dd1be0a
/model.23/cv3.0/cv3.0.1/cv3.0.1.0/conv/Conv_output_0: 3dc7bd67
/model.23/cv2.2/cv2.2.0/act/Sigmoid_output_0: 3c0101e1
/model.22/m.0/cv2/act/Sigmoid_output_0: 3c00fc15
/model.22/m.1/cv1/conv/Conv_output_0: 3d60872a
/model.19/m.1/m/m.0/Add_output_0: 3d6286f7
/model.23/Concat_6_output_0: 3e3e40b9
/model.23/cv3.1/cv3.1.0/cv3.1.0.0/act/Sigmoid_output_0: 3c00ff85
/model.19/Split_output_0: 3d67caf6
/model.23/cv2.1/cv2.1.1/conv/Conv_output_0: 3eae3ac7
/model.22/Concat_output_0: 3da6a596
ONNXTRT_Broadcast_302_output: 3e010204
/model.19/Split_output_1: 3d801f9b
/model.23/cv3.0/cv3.0.1/cv3.0.1.0/act/Sigmoid_output_0: 3c01008e
/model.19/m.0/cv1/conv/Conv_output_0: 3d1a6d72
/model.19/m.0/cv2/conv/Conv_output_0: 3df4c623
/model.23/cv3.0/cv3.0.1/cv3.0.1.0/act/Mul_output_0: 3da1aa3f
/model.19/m.0/cv1/act/Sigmoid_output_0: 3bfc4c48
/model.19/m.0/cv2/act/Sigmoid_output_0: 3c010202
/model.23/cv3.0/cv3.0.1/cv3.0.1.1/conv/Conv_output_0: 3e194ced
/model.19/m.0/cv1/act/Mul_output_0: 3ceede3a
/model.19/m.0/cv2/act/Mul_output_0: 3df4c61e
/model.23/cv3.0/cv3.0.1/cv3.0.1.1/act/Sigmoid_output_0: 3c010204
/model.19/m.0/m/m.0/cv1/conv/Conv_output_0: 3d4ef772
/model.23/cv3.0/cv3.0.1/cv3.0.1.1/act/Mul_output_0: 3e18eacd
/model.19/m.0/m/m.0/cv1/act/Sigmoid_output_0: 3bfffeab
/model.23/cv3.0/cv3.0.2/Conv_output_0: 3e221961
/model.19/m.0/m/m.0/cv1/act/Mul_output_0: 3d1aedec
/model.23/Concat_output_0: 3e221961
/model.19/m.0/m/m.0/cv2/conv/Conv_output_0: 3d327d88
ONNXTRT_ShapeShuffle_279_output: 3c010204
/model.22/m.0/cv3/act/Mul_output_0: 3da6a596
/model.19/m.0/m/m.0/cv2/act/Sigmoid_output_0: 3c0037f1
/model.23/Reshape_16_output_0: 3e1d3a75
/model.23/cv3.1/cv3.1.1/cv3.1.1.1/act/Mul_output_0: 3e0ecba0
/model.23/cv2.2/cv2.2.1/act/Sigmoid_output_0: 3c010204
/model.19/m.0/m/m.0/cv2/act/Mul_output_0: 3d232b51
/model.22/m.1/m/m.0/Add_output_0: 3d756cff
/model.22/m.0/cv1/act/Sigmoid_output_0: 3c00e4bb
/model.19/Concat_output_0: 3da6d15d
/model.23/Range_3_output_0: 3e9d3a75
/model.19/m.0/m/m.0/Add_output_0: 3d442a38
/model.22/m.1/cv3/conv/Conv_output_0: 3dbf4f88
/model.22/m.1/m/m.1/cv1/act/Sigmoid_output_0: 3c00debf
/model.19/cv2/act/Mul_output_0: 3debd448
/model.23/Constant_14_output_0_output: 0
/model.23/Constant_15_output_0_output: 3c010204
ONNXTRT_Broadcast_388_output: 3b810204
ONNXTRT_ShapeShuffle_383_output: 3c010204
/model.19/m.1/m/m.1/cv2/conv/Conv_output_0: 3e008dd3
/model.23/Concat_20_output_0: 3e1d3a75
/model.23/Reshape_11_output_0: 3e9f3e7d
/model.23/Concat_23_output_0: 3e810204
/model.23/Mul_5_output_0: 40a7989c
/model.23/Range_output_0: 3f1f3e7d
ONNXTRT_ShapeShuffle_184_output: 3c010204
/model.22/m.0/m/m.1/cv2/act/Mul_output_0: 3dbdbe31
/model.23/cv3.2/cv3.2.0/cv3.2.0.1/act/Mul_output_0: 3d89a73e
/model.23/Add_8_output_0: 3e810204
/model.23/cv3.2/cv3.2.1/cv3.2.1.1/conv/Conv_output_0: 3e380a66
/model.23/Transpose_1_output_0: 3e810204
/model.22/m.1/m/m.1/Add_output_0: 3dee4bd4
/model.23/cv3.2/cv3.2.2/Conv_output_0: 3e3e40b9
/model.23/Range_1_output_0: 3f1f3e7d
ONNXTRT_ShapeShuffle_194_output: 3c010204
/model.23/cv3.1/cv3.1.1/cv3.1.1.0/act/Sigmoid_output_0: 3c010204
/model.19/m.0/m/m.1/cv1/conv/Conv_output_0: 3d597b54
/model.23/Reshape_output_0: 3e221961
/model.23/Constant_16_output_0_output: 3b810204
ONNXTRT_Broadcast_198_output: 3b810204
/model.23/Reshape_4_output_0: 3f204081
ONNXTRT_Broadcast_200_output: 3b810204
/model.23/Reshape_3_output_0: 3f204081
/model.23/cv2.2/cv2.2.1/conv/Conv_output_0: 3e9f90ad
/model.22/m.1/m/m.1/cv2/act/Mul_output_0: 3df42f5d
/model.19/m.0/m/m.1/cv1/act/Sigmoid_output_0: 3c00beae
(Unnamed Layer* 645) [Constant]_output: 0
ONNXTRT_ShapeShuffle_203_output: 0
/model.23/ConstantOfShape_output_0: 0
/model.19/m.1/m/m.0/cv2/act/Mul_output_0: 3d5a79f1
/model.19/m.1/m/m.0/cv2/act/Sigmoid_output_0: 3c00dc98
/model.23/cv3.1/cv3.1.0/cv3.1.0.0/conv/Conv_output_0: 3e1269c9
/model.19/m.1/m/m.0/cv2/conv/Conv_output_0: 3d8a6f35
/model.23/Reshape_5_output_0: 3f204081
/model.23/Reshape_6_output_0: 3f204081
/model.19/m.0/m/m.1/cv1/act/Mul_output_0: 3d47563b
/model.23/Squeeze_output_0_output: 3d810204
ONNXTRT_Broadcast_208_output: 3d810204
/model.23/Add_2_output_0: 3d810204
/model.22/m.0/m/m.1/cv1/act/Sigmoid_output_0: 3c00fd94
/model.19/m.0/m/m.1/cv2/conv/Conv_output_0: 3dab6585
/model.22/m.0/m/m.0/cv2/conv/Conv_output_0: 3d845055
/model.23/cv2.2/cv2.2.1/act/Mul_output_0: 3e9f90ad
ONNXTRT_Broadcast_525_output: 3c810204
/model.23/Reshape_15_output_0: 3e1d3a75
/model.22/m.1/cv1/act/Mul_output_0: 3d6050c3
/model.23/Expand_4_output_0: 3e1d3a75
/model.23/Squeeze_1_output_0_output: 3e010204
/model.22/m.1/cv3/act/Mul_output_0: 3d6fa429
/model.22/m.1/m/m.1/cv1/conv/Conv_output_0: 3d7cc44e
/model.23/Add_11_output_0: 3fa081f9
/model.23/Expand_output_0: 3f204081
/model.19/m.1/m/m.1/cv2/act/Sigmoid_output_0: 3c010202
/model.23/Sub_1_output_0: 3e3ec76b
/model.23/Reshape_14_output_0: 3e1d3a75
/model.22/m.0/m/m.1/cv2/conv/Conv_output_0: 3dbdbe92
/model.22/cv1/act/Sigmoid_output_0: 3c00fe6d
/model.23/cv3.2/cv3.2.1/cv3.2.1.0/conv/Conv_output_0: 3e320af4
/model.23/Sub_output_0: 3f1fd1af
/model.23/Sigmoid_output_0: 3bf67de0
/model.23/Unsqueeze_10_output_0: 3e1d3a75
/model.23/Concat_2_output_0: 3e3e40b9
/model.23/Expand_1_output_0: 3f204081
/model.19/m.0/m/m.1/cv2/act/Sigmoid_output_0: 3c010138
/model.23/Unsqueeze_12_output_0: 3f204081
/model.23/Div_1_output_0: 3f2081f9
/model.22/m.1/m/m.0/cv2/conv/Conv_output_0: 3d773c77
/model.23/cv2.1/cv2.1.0/conv/Conv_output_0: 3dd31489
/model.23/cv3.1/cv3.1.1/cv3.1.1.1/act/Sigmoid_output_0: 3c010204
/model.23/cv2.2/cv2.2.0/act/Mul_output_0: 3dc7d9e8
/model.23/Unsqueeze_3_output_0: 3f204081
/model.23/cv3.1/cv3.1.1/cv3.1.1.0/conv/Conv_output_0: 3e1da154
/model.23/Constant_67_output_0_output: 3c810204
/model.23/cv3.2/cv3.2.1/cv3.2.1.1/act/Mul_output_0: 3e380a66
/model.23/cv2.1/cv2.1.0/act/Mul_output_0: 3dd3146c
/model.23/Concat_24_output_0: 3f2081f9
output0: 40a7989c
/model.23/Unsqueeze_4_output_0: 3f204081
/model.19/m.0/m/m.1/cv2/act/Mul_output_0: 3dab6477
/model.23/Concat_10_output_0: 3f204081
/model.19/m.0/m/m.1/Add_output_0: 3db928fa
/model.23/Reshape_7_output_0: 3f204081
/model.19/m.0/Concat_output_0: 3df4c61e
/model.19/m.0/cv3/conv/Conv_output_0: 3d83c1c9
/model.19/m.0/cv3/act/Sigmoid_output_0: 3c00f8a5
/model.19/m.0/cv3/act/Mul_output_0: 3d83b836
/model.19/m.1/cv1/conv/Conv_output_0: 3d67b1ed
/model.19/m.1/cv2/conv/Conv_output_0: 3d47191d
/model.19/m.1/cv1/act/Sigmoid_output_0: 3c00e8fb
/model.19/m.1/cv2/act/Sigmoid_output_0: 3c00bd52
/model.19/m.1/cv1/act/Mul_output_0: 3d6784f6
/model.19/m.1/cv2/act/Mul_output_0: 3d46af18
/model.19/m.1/m/m.0/cv1/conv/Conv_output_0: 3d9cbc0b
/model.19/m.1/m/m.0/cv1/act/Sigmoid_output_0: 3c01000c
/model.19/m.1/m/m.0/cv1/act/Mul_output_0: 3d9cb9a6
