TRT-100300-MinMaxCalibration
images: 3c010204
/model.0/conv/Conv_output_0: 3f4acdf1
/model.0/act/Sigmoid_output_0: 3c010204
/model.0/act/Mul_output_0: 3f3b5d12
/model.1/conv/Conv_output_0: 3f6b0623
/model.1/act/Sigmoid_output_0: 3c010204
/model.1/act/Mul_output_0: 3f38b2a3
/model.2/cv1/conv/Conv_output_0: 3f2e3725
/model.2/cv1/act/Sigmoid_output_0: 3c010204
/model.2/cv1/act/Mul_output_0: 3e314de5
/model.23/Transpose_1_output_0: 3e810204
/model.23/Concat_10_output_0: 3f204081
/model.23/cv2.2/cv2.2.1/act/Sigmoid_output_0: 3c010204
/model.23/cv2.2/cv2.2.2/Conv_output_0: 3dc5d96a
/model.23/cv3.1/cv3.1.1/cv3.1.1.1/act/Mul_output_0: 3ef36ab4
/model.22/Split_output_0: 3d6e922f
/model.2/Split_output_0: 3e314de5
/model.23/Concat_2_output_0: 3e90a926
ONNXTRT_ShapeShuffle_264_output: 0
/model.23/Concat_1_output_0: 3e969e4b
/model.2/Split_output_1: 3dab0fee
/model.2/m.0/cv1/conv/Conv_output_0: 3da74b42
/model.2/m.0/cv1/act/Sigmoid_output_0: 3c0100fb
/model.2/m.0/cv1/act/Mul_output_0: 3da749ea
/model.2/m.0/cv2/conv/Conv_output_0: 3e288034
/model.2/m.0/cv2/act/Sigmoid_output_0: 3c0101fc
/model.2/m.0/cv2/act/Mul_output_0: 3de0067d
/model.2/m.0/Add_output_0: 3e0ab2f6
/model.2/Concat_output_0: 3e314de5
/model.2/cv2/conv/Conv_output_0: 3e594811
/model.2/cv2/act/Sigmoid_output_0: 3c0101f3
/model.2/cv2/act/Mul_output_0: 3dd3e696
/model.3/conv/Conv_output_0: 3dc1f3fc
/model.3/act/Sigmoid_output_0: 3c00bd35
/model.3/act/Mul_output_0: 3d46a172
/model.4/cv1/conv/Conv_output_0: 3da4f119
/model.4/cv1/act/Sigmoid_output_0: 3c00c015
/model.4/cv1/act/Mul_output_0: 3d48064d
/model.23/Concat_15_output_0: 3e9f3e7d
/model.23/Reshape_8_output_0: 3e9f3e7d
/model.23/Concat_6_output_0: 3e969e4b
/model.23/Reshape_9_output_0: 3e9f3e7d
/model.23/cv3.2/cv3.2.1/cv3.2.1.0/conv/Conv_output_0: 3e3ba25b
/model.23/Constant_67_output_0_output: 3c810204
/model.4/Split_output_0: 3d48064d
/model.22/m.0/m/m.1/Add_output_0: 3dd2aef6
/model.22/m.0/m/m.1/cv1/conv/Conv_output_0: 3d7d977e
/model.23/dfl/conv/Conv_output_0: 3de41b78
/model.4/Split_output_1: 3d03944c
/model.4/m.0/cv1/conv/Conv_output_0: 3d20b8fa
/model.4/m.0/cv1/act/Sigmoid_output_0: 3bfac3b9
/model.4/m.0/cv1/act/Mul_output_0: 3cde23dd
/model.4/m.0/cv2/conv/Conv_output_0: 3d888a15
/model.4/m.0/cv2/act/Sigmoid_output_0: 3c00e011
/model.4/m.0/cv2/act/Mul_output_0: 3d5da30e
/model.4/m.0/Add_output_0: 3d599cf4
/model.4/Concat_output_0: 3d599cf4
/model.4/cv2/conv/Conv_output_0: 3d8a15dd
/model.4/cv2/act/Sigmoid_output_0: 3c00cb04
/model.4/cv2/act/Mul_output_0: 3d4df0dd
/model.5/conv/Conv_output_0: 3d89424b
/model.5/act/Sigmoid_output_0: 3c005c52
/model.5/act/Mul_output_0: 3d29c11c
/model.6/cv1/conv/Conv_output_0: 3ddaf171
/model.6/cv1/act/Sigmoid_output_0: 3c00eaad
/model.6/cv1/act/Mul_output_0: 3d69cb46
/model.23/Reshape_16_output_0: 3e1d3a75
/model.22/m.0/m/m.1/cv1/act/Mul_output_0: 3d59a096
/model.23/cv3.2/cv3.2.0/cv3.2.0.1/act/Mul_output_0: 3d992c2b
/model.22/m.0/cv3/act/Sigmoid_output_0: 3c00ff53
/model.23/Div_1_output_0: 3f2086ed
/model.23/cv2.2/cv2.2.1/conv/Conv_output_0: 3ec614a2
/model.6/Split_output_0: 3d2ffbfa
/model.23/cv2.2/cv2.2.0/conv/Conv_output_0: 3dba8534
ONNXTRT_ShapeShuffle_256_output: 3c010204
/model.22/m.0/cv3/conv/Conv_output_0: 3de4f885
/model.6/Split_output_1: 3d69cb46
/model.6/m.0/cv1/conv/Conv_output_0: 3cfe4b2d
/model.6/m.0/cv2/conv/Conv_output_0: 3d676b1a
/model.6/m.0/cv1/act/Sigmoid_output_0: 3bfbd5af
/model.6/m.0/cv2/act/Sigmoid_output_0: 3c00e8c4
/model.6/m.0/cv1/act/Mul_output_0: 3ce966d7
/model.6/m.0/cv2/act/Mul_output_0: 3d673dce
/model.6/m.0/m/m.0/cv1/conv/Conv_output_0: 3d99da73
/model.6/m.0/m/m.0/cv1/act/Sigmoid_output_0: 3c00b3be
/model.6/m.0/m/m.0/cv1/act/Mul_output_0: 3d426c2b
/model.6/m.0/m/m.0/cv2/conv/Conv_output_0: 3d2bcb8e
/model.6/m.0/m/m.0/cv2/act/Sigmoid_output_0: 3c0005da
/model.6/m.0/m/m.0/cv2/act/Mul_output_0: 3d1bc81a
/model.6/m.0/m/m.0/Add_output_0: 3d1c411c
/model.6/m.0/m/m.1/cv1/conv/Conv_output_0: 3d39f94c
/model.6/m.0/m/m.1/cv1/act/Sigmoid_output_0: 3c0068c4
/model.6/m.0/m/m.1/cv1/act/Mul_output_0: 3d2c560d
/model.6/m.0/m/m.1/cv2/conv/Conv_output_0: 3d89b7b7
/model.6/m.0/m/m.1/cv2/act/Sigmoid_output_0: 3c00f055
/model.6/m.0/m/m.1/cv2/act/Mul_output_0: 3d72ca78
/model.6/m.0/m/m.1/Add_output_0: 3d8852b7
/model.6/m.0/Concat_output_0: 3d8852b7
/model.6/m.0/cv3/conv/Conv_output_0: 3d7ef3f9
/model.6/m.0/cv3/act/Sigmoid_output_0: 3c00eec4
/model.6/m.0/cv3/act/Mul_output_0: 3d7008bb
/model.6/Concat_output_0: 3d7008bb
/model.6/cv2/conv/Conv_output_0: 3d614c20
/model.6/cv2/act/Sigmoid_output_0: 3c00a3b7
/model.6/cv2/act/Mul_output_0: 3d3c51d4
/model.7/conv/Conv_output_0: 3d7d2b3e
/model.7/act/Sigmoid_output_0: 3c00f525
/model.7/act/Mul_output_0: 3d7d11fc
/model.8/cv1/conv/Conv_output_0: 3d926c17
/model.8/cv1/act/Sigmoid_output_0: 3c00f028
/model.8/cv1/act/Mul_output_0: 3d727802
/model.23/Mul_5_output_0: 40a34480
/model.23/cv3.2/cv3.2.1/cv3.2.1.0/act/Mul_output_0: 3e3ba25b
/model.23/cv2.2/cv2.2.0/act/Sigmoid_output_0: 3c00ff4b
/model.23/dfl/Softmax_output_0: 3bf7a814
/model.22/cv2/conv/Conv_output_0: 3deef9da
/model.23/Unsqueeze_10_output_0: 3e1d3a75
/model.8/Split_output_0: 3d727802
/model.23/ConstantOfShape_2_output_0: 0
/model.23/Expand_3_output_0: 3e9f3e7d
ONNXTRT_ShapeShuffle_246_output: 3c010204
/model.8/Split_output_1: 3d38f92d
/model.8/m.0/cv1/conv/Conv_output_0: 3d48fd5a
/model.8/m.0/cv2/conv/Conv_output_0: 3d5da8a7
/model.8/m.0/cv1/act/Sigmoid_output_0: 3c00afce
/model.8/m.0/cv2/act/Sigmoid_output_0: 3c00dfd9
/model.8/m.0/cv1/act/Mul_output_0: 3d40d0a7
/model.8/m.0/cv2/act/Mul_output_0: 3d5d6df2
/model.8/m.0/m/m.0/cv1/conv/Conv_output_0: 3d49f03c
/model.8/m.0/m/m.0/cv1/act/Sigmoid_output_0: 3c008471
/model.8/m.0/m/m.0/cv1/act/Mul_output_0: 3d32e8d5
/model.8/m.0/m/m.0/cv2/conv/Conv_output_0: 3d7c0fde
/model.8/m.0/m/m.0/cv2/act/Sigmoid_output_0: 3c00b754
/model.8/m.0/m/m.0/cv2/act/Mul_output_0: 3d43f441
/model.8/m.0/m/m.0/Add_output_0: 3d45d6a5
/model.8/m.0/m/m.1/cv1/conv/Conv_output_0: 3d75fa3a
/model.8/m.0/m/m.1/cv1/act/Sigmoid_output_0: 3c00cc2e
/model.8/m.0/m/m.1/cv1/act/Mul_output_0: 3d4ea2f1
/model.8/m.0/m/m.1/cv2/conv/Conv_output_0: 3dd26ab3
/model.8/m.0/m/m.1/cv2/act/Sigmoid_output_0: 3c0101f2
/model.8/m.0/m/m.1/cv2/act/Mul_output_0: 3dd26a96
/model.8/m.0/m/m.1/Add_output_0: 3def0acc
/model.8/m.0/Concat_output_0: 3def0acc
/model.8/m.0/cv3/conv/Conv_output_0: 3d9c7db3
/model.8/m.0/cv3/act/Sigmoid_output_0: 3c010004
/model.8/m.0/cv3/act/Mul_output_0: 3d9c7b47
/model.8/Concat_output_0: 3d9c7b47
/model.8/cv2/conv/Conv_output_0: 3d7fe1bd
/model.8/cv2/act/Sigmoid_output_0: 3c00e7b6
/model.8/cv2/act/Mul_output_0: 3d65eb11
/model.9/cv1/conv/Conv_output_0: 3d596fb5
/model.9/cv1/act/Sigmoid_output_0: 3c00db12
/model.9/cv1/act/Mul_output_0: 3d592e12
/model.9/m/MaxPool_output_0: 3d592e12
/model.9/m_1/MaxPool_output_0: 3d592e12
/model.9/m_2/MaxPool_output_0: 3d592e12
/model.9/Concat_output_0: 3d592e12
/model.9/cv2/conv/Conv_output_0: 3da67630
/model.9/cv2/act/Sigmoid_output_0: 3c00bc62
/model.9/cv2/act/Mul_output_0: 3d463db5
/model.10/cv1/conv/Conv_output_0: 3dc300c1
/model.10/cv1/act/Sigmoid_output_0: 3c0101d5
/model.10/cv1/act/Mul_output_0: 3dc30079
/model.23/Unsqueeze_12_output_0: 3f204081
/model.22/m.0/m/m.1/cv2/conv/Conv_output_0: 3dd474fe
/model.23/Unsqueeze_6_output_0: 3e9f3e7d
/model.23/cv2.2/cv2.2.0/act/Mul_output_0: 3d97a4ab
/model.23/Unsqueeze_7_output_0: 3e9f3e7d
/model.23/cv3.2/cv3.2.2/Conv_output_0: 3e90a926
/model.10/Split_output_0: 3d8e2f68
/model.23/cv3.1/cv3.1.1/cv3.1.1.0/act/Mul_output_0: 3deb75a2
/model.23/cv3.2/cv3.2.0/cv3.2.0.1/act/Sigmoid_output_0: 3c00ff8c
/model.23/dfl/Reshape_1_output_0: 3de41b78
/model.10/Split_output_1: 3dc30079
/model.23/Reshape_17_output_0: 3e1d3a75
/model.22/m.0/m/m.0/Add_output_0: 3d587145
/model.10/m/m.0/attn/qkv/conv/Conv_output_0: 3d7ca39e
ONNXTRT_Broadcast_492_output: 3c810204
/model.23/ConstantOfShape_1_output_0: 0
/model.22/m.0/cv1/conv/Conv_output_0: 3d126b50
/model.23/cv3.2/cv3.2.0/cv3.2.0.1/conv/Conv_output_0: 3e2f8f98
/model.23/Slice_output_0: 3de41b78
/model.23/Reshape_1_output_0: 3e969e4b
/model.22/m.0/m/m.1/cv2/act/Sigmoid_output_0: 3c0101f4
/model.23/cv3.2/cv3.2.1/cv3.2.1.1/act/Mul_output_0: 3e74a7a2
(Unnamed Layer* 516) [Constant]_output: 0
/model.23/cv2.1/cv2.1.1/act/Mul_output_0: 3e8fd3f1
/model.22/cv1/conv/Conv_output_0: 3d6eb775
/model.23/cv3.1/cv3.1.0/cv3.1.0.1/act/Sigmoid_output_0: 3c00fd88
/model.23/dfl/Softmax_output: 3bf7a814
/model.22/Concat_output_0: 3d97d531
/model.23/Add_11_output_0: 3fa086ed
/model.23/Reshape_13_output_0: 3e1d3a75
/model.10/m/m.0/attn/Reshape_output_0: 3d7ca39e
/model.23/Reshape_7_output_0: 3f204081
/model.22/m.0/m/m.0/cv2/act/Mul_output_0: 3d56ef67
ONNXTRT_Broadcast_259_output: 3b810204
/model.23/Squeeze_2_output_0_output: 3e810204
ONNXTRT_Broadcast_261_output: 3b810204
/model.23/Concat_20_output_0: 3e1d3a75
/model.10/m/m.0/attn/Split_output_0: 3d420a8d
/model.23/cv3.2/cv3.2.0/cv3.2.0.0/act/Sigmoid_output_0: 3c0101f8
/model.23/Reshape_15_output_0: 3e1d3a75
/model.23/Expand_1_output_0: 3f204081
/model.10/m/m.0/attn/Split_output_1: 3d566bc5
/model.23/dfl/Transpose_output_0: 3df448dd
/model.23/cv3.1/cv3.1.0/cv3.1.0.1/conv/Conv_output_0: 3d957495
/model.22/cv2/act/Sigmoid_output_0: 3c010201
/model.10/m/m.0/attn/Split_output_2: 3d7ca39e
/model.10/m/m.0/attn/Transpose_output_0: 3d420a8d
/model.10/m/m.0/attn/Reshape_2_output_0: 3d7ca39e
/model.10/m/m.0/attn/MatMul_output_0: 3f2c69e4
/model.10/m/m.0/attn/pe/conv/Conv_output_0: 3d35b862
/model.10/m/m.0/attn/Constant_6_output_0_output: 3ab671d7
ONNXTRT_Broadcast_output: 3ab671d7
/model.10/m/m.0/attn/Mul_1_output_0: 3df3d467
/model.10/m/m.0/attn/Softmax_output: 3bd4d913
/model.10/m/m.0/attn/Softmax_output_0: 3bd4d913
/model.23/Add_10_output_0: 3f25816e
/model.22/m.0/m/m.1/cv2/act/Mul_output_0: 3dd474e4
/model.10/m/m.0/attn/Transpose_1_output_0: 3bd4d913
/model.10/m/m.0/attn/MatMul_1_output_0: 3d238de7
/model.10/m/m.0/attn/Reshape_1_output_0: 3d238de7
/model.10/m/m.0/attn/Add_output_0: 3ced9ee4
/model.10/m/m.0/attn/proj/conv/Conv_output_0: 3d0e8101
/model.10/m/m.0/Add_output_0: 3d8e8d93
/model.10/m/m.0/ffn/ffn.0/conv/Conv_output_0: 3d63a479
/model.10/m/m.0/ffn/ffn.0/act/Sigmoid_output_0: 3c00e5a0
/model.10/m/m.0/ffn/ffn.0/act/Mul_output_0: 3d637261
/model.10/m/m.0/ffn/ffn.1/conv/Conv_output_0: 3dacb5ab
/model.10/m/m.0/Add_1_output_0: 3d4cb777
/model.10/Concat_output_0: 3d8e2f68
/model.10/cv2/conv/Conv_output_0: 3d834fbb
/model.10/cv2/act/Sigmoid_output_0: 3c00f783
/model.10/cv2/act/Mul_output_0: 3d81d09d
/model.11/Resize_output_0: 3d81d09d
/model.12/Concat_output_0: 3d81d09d
/model.13/cv1/conv/Conv_output_0: 3d581f6d
/model.13/cv1/act/Sigmoid_output_0: 3c00c83d
/model.13/cv1/act/Mul_output_0: 3d4c5692
ONNXTRT_Broadcast_355_output: 3b810204
/model.23/Range_3_output_0: 3e9d3a75
/model.23/cv3.2/cv3.2.0/cv3.2.0.0/act/Mul_output_0: 3dd8acfb
output0: 40a34480
/model.23/Range_5_output_0: 3e193265
/model.22/m.0/m/m.0/cv2/conv/Conv_output_0: 3d5fb913
/model.13/Split_output_0: 3d4c5692
/model.23/dfl/Reshape_output_0: 3df448dd
/model.23/Expand_2_output_0: 3e9f3e7d
/model.22/m.0/m/m.0/cv1/act/Mul_output_0: 3d33e353
/model.13/Split_output_1: 3ceaf8ea
/model.13/m.0/cv1/conv/Conv_output_0: 3d5bef85
/model.13/m.0/cv1/act/Sigmoid_output_0: 3c00ccaa
/model.13/m.0/cv1/act/Mul_output_0: 3d4eee7e
/model.13/m.0/cv2/conv/Conv_output_0: 3da6d652
/model.13/m.0/cv2/act/Sigmoid_output_0: 3c00e760
/model.13/m.0/cv2/act/Mul_output_0: 3d658166
/model.13/m.0/Add_output_0: 3d658651
/model.13/Concat_output_0: 3d658651
/model.13/cv2/conv/Conv_output_0: 3d659e0e
/model.13/cv2/act/Sigmoid_output_0: 3bff9205
/model.13/cv2/act/Mul_output_0: 3d1486d2
/model.14/Resize_output_0: 3d1486d2
/model.15/Concat_output_0: 3d4df0dd
/model.16/cv1/conv/Conv_output_0: 3d3c07df
/model.16/cv1/act/Sigmoid_output_0: 3bfc9e4e
/model.16/cv1/act/Mul_output_0: 3cf2e4a9
/model.23/cv3.1/cv3.1.2/Conv_output_0: 3e969e4b
/model.23/Reshape_14_output_0: 3e1d3a75
/model.23/Squeeze_1_output_0_output: 3e010204
/model.23/cv2.2/cv2.2.1/act/Mul_output_0: 3ec614a2
/model.22/m.0/cv3/act/Mul_output_0: 3d97d531
/model.23/Split_1_output_0: 3df448dd
/model.16/Split_output_0: 3cf2e4a9
/model.23/Sub_1_output_0: 3e36e165
/model.23/Split_1_output_1: 3e969e4b
/model.23/cv3.1/cv3.1.1/cv3.1.1.1/act/Sigmoid_output_0: 3c010204
/model.16/Split_output_1: 3c7ba8dc
/model.16/m.0/cv1/conv/Conv_output_0: 3d1bc668
/model.16/m.0/cv1/act/Sigmoid_output_0: 3bfb936c
/model.16/m.0/cv1/act/Mul_output_0: 3ce68470
/model.16/m.0/cv2/conv/Conv_output_0: 3d846fe1
/model.16/m.0/cv2/act/Sigmoid_output_0: 3c008b60
/model.16/m.0/cv2/act/Mul_output_0: 3d34c6db
/model.16/m.0/Add_output_0: 3d335ae4
/model.16/Concat_output_0: 3d335ae4
/model.16/cv2/conv/Conv_output_0: 3d8ecdd2
/model.16/cv2/act/Sigmoid_output_0: 3bfe801a
/model.16/cv2/act/Mul_output_0: 3d083a5f
/model.17/conv/Conv_output_0: 3d473fce
/model.23/cv2.0/cv2.0.0/conv/Conv_output_0: 3dd71c11
/model.23/cv3.0/cv3.0.0/cv3.0.0.0/conv/Conv_output_0: 3d74f720
/model.17/act/Sigmoid_output_0: 3bff44fe
/model.23/cv2.0/cv2.0.0/act/Sigmoid_output_0: 3c00b9bd
/model.23/cv3.0/cv3.0.0/cv3.0.0.0/act/Sigmoid_output_0: 3c00f16b
/model.17/act/Mul_output_0: 3d109d34
/model.23/cv2.0/cv2.0.0/act/Mul_output_0: 3d45069d
/model.23/cv3.0/cv3.0.0/cv3.0.0.0/act/Mul_output_0: 3d74d79b
/model.18/Concat_output_0: 3d1486d2
/model.23/cv2.0/cv2.0.1/conv/Conv_output_0: 3ebc36c2
/model.23/cv3.0/cv3.0.0/cv3.0.0.1/conv/Conv_output_0: 3db3cf51
/model.19/cv1/conv/Conv_output_0: 3d76aea1
/model.23/cv2.0/cv2.0.1/act/Sigmoid_output_0: 3c010204
/model.23/cv3.0/cv3.0.0/cv3.0.0.1/act/Sigmoid_output_0: 3c007a1a
/model.19/cv1/act/Sigmoid_output_0: 3c00e284
/model.23/cv2.0/cv2.0.1/act/Mul_output_0: 3ebc36c2
/model.23/cv3.0/cv3.0.0/cv3.0.0.1/act/Mul_output_0: 3d304ce0
/model.19/cv1/act/Mul_output_0: 3d601188
/model.23/cv2.0/cv2.0.2/Conv_output_0: 3df448dd
/model.23/cv3.0/cv3.0.1/cv3.0.1.0/conv/Conv_output_0: 3da63521
/model.23/Expand_4_output_0: 3e1d3a75
ONNXTRT_ShapeShuffle_358_output: 0
/model.22/m.0/Concat_output_0: 3dd2aef6
/model.23/cv3.1/cv3.1.1/cv3.1.1.0/act/Sigmoid_output_0: 3c010200
/model.23/cv3.2/cv3.2.1/cv3.2.1.1/conv/Conv_output_0: 3e74a7a2
/model.22/cv2/act/Mul_output_0: 3deef9d4
/model.19/Split_output_0: 3d601188
/model.23/Expand_5_output_0: 3e1d3a75
/model.23/Range_2_output_0: 3e9d3a75
/model.22/m.0/m/m.0/cv1/act/Sigmoid_output_0: 3c00881f
/model.19/Split_output_1: 3d09204b
/model.23/cv3.0/cv3.0.1/cv3.0.1.0/act/Sigmoid_output_0: 3c00f2c2
/model.19/m.0/cv1/conv/Conv_output_0: 3d4c1a80
/model.23/cv3.0/cv3.0.1/cv3.0.1.0/act/Mul_output_0: 3d778f9e
/model.19/m.0/cv1/act/Sigmoid_output_0: 3c00106e
/model.23/cv3.0/cv3.0.1/cv3.0.1.1/conv/Conv_output_0: 3e8c9fdc
/model.19/m.0/cv1/act/Mul_output_0: 3d1d364d
/model.23/cv3.0/cv3.0.1/cv3.0.1.1/act/Sigmoid_output_0: 3c010204
/model.19/m.0/cv2/conv/Conv_output_0: 3dc79e41
/model.23/cv3.0/cv3.0.1/cv3.0.1.1/act/Mul_output_0: 3e408ae4
/model.19/m.0/cv2/act/Sigmoid_output_0: 3c00ff83
/model.23/cv3.0/cv3.0.2/Conv_output_0: 3e3335b5
/model.19/m.0/cv2/act/Mul_output_0: 3d98f914
/model.23/Concat_output_0: 3e3335b5
/model.19/m.0/Add_output_0: 3d95e0f9
/model.22/m.0/m/m.0/cv1/conv/Conv_output_0: 3d4fa7a9
/model.23/Sub_output_0: 3f1fd703
/model.19/Concat_output_0: 3d95e0f9
ONNXTRT_ShapeShuffle_340_output: 3c010204
/model.22/m.0/cv2/act/Mul_output_0: 3d2eb9b4
/model.22/m.0/cv1/act/Mul_output_0: 3c95eb41
/model.19/cv2/conv/Conv_output_0: 3dc2d765
/model.22/m.0/cv2/act/Sigmoid_output_0: 3c007379
(Unnamed Layer* 650) [Constant]_output: 0
/model.22/m.0/m/m.0/cv2/act/Sigmoid_output_0: 3c00d84b
/model.21/Concat_output_0: 3d81d09d
/model.19/cv2/act/Sigmoid_output_0: 3c00b565
/model.23/Range_4_output_0: 3e193265
/model.23/Slice_1_output_0: 3ddfc852
/model.22/m.0/cv1/act/Sigmoid_output_0: 3beeab6b
/model.23/Constant_14_output_0_output: 0
/model.23/Constant_15_output_0_output: 3c010204
ONNXTRT_Broadcast_365_output: 3e810204
ONNXTRT_Broadcast_269_output: 3e010204
/model.23/cv2.1/cv2.1.2/Conv_output_0: 3de1b7c2
/model.23/cv3.1/cv3.1.1/cv3.1.1.0/conv/Conv_output_0: 3deb75a9
/model.22/cv1/act/Mul_output_0: 3d6e922f
/model.23/Concat_24_output_0: 3f2086ed
/model.23/cv3.1/cv3.1.0/cv3.1.0.1/act/Mul_output_0: 3d8f87f1
/model.23/Range_output_0: 3f1f3e7d
ONNXTRT_ShapeShuffle_151_output: 3c010204
/model.23/Sigmoid_output_0: 3bf0da34
/model.23/cv3.2/cv3.2.1/cv3.2.1.0/act/Sigmoid_output_0: 3c010204
ONNXTRT_Broadcast_499_output: 3e810204
/model.23/Reshape_12_output_0: 3e9f3e7d
/model.23/Add_8_output_0: 3e810204
/model.23/Unsqueeze_9_output_0: 3e1d3a75
/model.23/Concat_23_output_0: 3e810204
/model.23/Range_1_output_0: 3f1f3e7d
ONNXTRT_ShapeShuffle_161_output: 3c010204
/model.22/m.0/cv2/conv/Conv_output_0: 3d2f7b99
/model.19/cv2/act/Mul_output_0: 3d431ec1
/model.23/Reshape_output_0: 3e3335b5
/model.23/Constant_16_output_0_output: 3b810204
ONNXTRT_Broadcast_165_output: 3b810204
/model.23/Reshape_4_output_0: 3f204081
ONNXTRT_Broadcast_167_output: 3b810204
/model.23/Reshape_3_output_0: 3f204081
/model.22/m.0/m/m.1/cv1/act/Sigmoid_output_0: 3c00db9b
/model.22/Split_output_1: 3d44aeec
/model.20/conv/Conv_output_0: 3d82f6f0
/model.23/cv2.1/cv2.1.0/conv/Conv_output_0: 3de8d875
/model.23/cv3.1/cv3.1.0/cv3.1.0.0/conv/Conv_output_0: 3db2e0dd
(Unnamed Layer* 382) [Constant]_output: 0
ONNXTRT_ShapeShuffle_170_output: 0
/model.23/ConstantOfShape_output_0: 0
/model.22/cv1/act/Sigmoid_output_0: 3c00ede0
/model.23/Unsqueeze_4_output_0: 3f204081
/model.23/cv2.1/cv2.1.1/act/Sigmoid_output_0: 3c010204
/model.23/Reshape_2_output_0: 3e90a926
/model.23/Reshape_5_output_0: 3f204081
/model.23/Reshape_6_output_0: 3f204081
/model.20/act/Sigmoid_output_0: 3c004843
/model.23/cv2.1/cv2.1.0/act/Sigmoid_output_0: 3c00fec2
/model.23/cv3.1/cv3.1.0/cv3.1.0.0/act/Sigmoid_output_0: 3c010183
/model.23/Squeeze_output_0_output: 3d810204
ONNXTRT_Broadcast_175_output: 3d810204
/model.23/Add_2_output_0: 3d810204
ONNXTRT_Broadcast_353_output: 3b810204
/model.20/act/Mul_output_0: 3d25f636
/model.23/cv2.1/cv2.1.0/act/Mul_output_0: 3d94ca22
/model.23/cv3.1/cv3.1.0/cv3.1.0.0/act/Mul_output_0: 3db2e02a
/model.23/Add_5_output_0: 3e010204
/model.23/Unsqueeze_3_output_0: 3f204081
/model.23/cv3.2/cv3.2.0/cv3.2.0.0/conv/Conv_output_0: 3e0e5cc3
/model.23/cv3.2/cv3.2.1/cv3.2.1.1/act/Sigmoid_output_0: 3c010204
/model.23/cv2.1/cv2.1.1/conv/Conv_output_0: 3e8fd3f1
/model.23/Concat_22_output_0: 3f204081
/model.23/Reshape_10_output_0: 3e9f3e7d
/model.23/Reshape_11_output_0: 3e9f3e7d
/model.23/Transpose_output_0: 3f204081
ONNXTRT_ShapeShuffle_350_output: 3c010204
/model.23/Expand_output_0: 3f204081
/model.23/cv3.1/cv3.1.1/cv3.1.1.1/conv/Conv_output_0: 3ef36ab4
