TRT-100300-MinMaxCalibration
images: 3c010204
/model.0/conv/Conv_output_0: 3f0ad765
/model.0/act/Sigmoid_output_0: 3c010204
/model.0/act/Mul_output_0: 3f060504
/model.1/conv/Conv_output_0: 3f6ea394
/model.1/act/Sigmoid_output_0: 3c010204
/model.1/act/Mul_output_0: 3f6325f9
/model.2/cv1/conv/Conv_output_0: 3f716d0d
/model.2/cv1/act/Sigmoid_output_0: 3c010204
/model.2/cv1/act/Mul_output_0: 3eecbd65
/model.23/ConstantOfShape_2_output_0: 0
/model.23/Unsqueeze_6_output_0: 3e9f3e7d
/model.23/Sub_output_0: 3f1fdc9c
/model.23/cv3.1/cv3.1.0/cv3.1.0.1/act/Sigmoid_output_0: 3c00dbd9
/model.23/Reshape_14_output_0: 3e1d3a75
/model.22/cv1/act/Mul_output_0: 3d58e5eb
/model.2/Split_output_0: 3ed6286d
/model.23/cv3.2/cv3.2.1/cv3.2.1.1/act/Mul_output_0: 3eb6db2c
/model.23/Add_8_output_0: 3e810204
/model.22/m.0/m/m.1/cv2/act/Sigmoid_output_0: 3c010204
/model.2/Split_output_1: 3eecbd65
/model.2/m.0/cv1/conv/Conv_output_0: 3daf4f41
/model.2/m.0/cv1/act/Sigmoid_output_0: 3bf3fa61
/model.2/m.0/cv1/act/Mul_output_0: 3cae292b
/model.2/m.0/cv2/conv/Conv_output_0: 3e93c814
/model.2/m.0/cv2/act/Sigmoid_output_0: 3c010204
/model.2/m.0/cv2/act/Mul_output_0: 3e55fe8d
/model.2/m.0/Add_output_0: 3f05825d
/model.2/Concat_output_0: 3f05825d
/model.2/cv2/conv/Conv_output_0: 3ed937c7
/model.2/cv2/act/Sigmoid_output_0: 3c010204
/model.2/cv2/act/Mul_output_0: 3e0fba05
/model.3/conv/Conv_output_0: 3e0cf0b7
/model.3/act/Sigmoid_output_0: 3c010203
/model.3/act/Mul_output_0: 3dfef35c
/model.4/cv1/conv/Conv_output_0: 3e0c763a
/model.4/cv1/act/Sigmoid_output_0: 3bffcc32
/model.4/cv1/act/Mul_output_0: 3d17cf4c
/model.23/Slice_output_0: 3ddfcba9
/model.23/cv2.1/cv2.1.1/conv/Conv_output_0: 3e64e037
/model.23/cv3.2/cv3.2.0/cv3.2.0.1/conv/Conv_output_0: 3e09445a
/model.23/Slice_1_output_0: 3ddb61ff
/model.23/cv3.2/cv3.2.2/Conv_output_0: 3e8c9865
/model.23/Mul_5_output_0: 40a11de2
/model.4/Split_output_0: 3d17cf4c
ONNXTRT_ShapeShuffle_340_output: 3c010204
/model.23/Add_5_output_0: 3e010204
/model.22/m.0/cv1/act/Mul_output_0: 3c21d4ff
/model.4/Split_output_1: 3cf95f3c
/model.4/m.0/cv1/conv/Conv_output_0: 3d05cc2c
/model.4/m.0/cv1/act/Sigmoid_output_0: 3bfcf22c
/model.4/m.0/cv1/act/Mul_output_0: 3cf73e5c
/model.4/m.0/cv2/conv/Conv_output_0: 3d9b7eeb
/model.4/m.0/cv2/act/Sigmoid_output_0: 3c00d445
/model.4/m.0/cv2/act/Mul_output_0: 3d53f180
/model.4/m.0/Add_output_0: 3d75be66
/model.4/Concat_output_0: 3d75be66
/model.4/cv2/conv/Conv_output_0: 3d886117
/model.4/cv2/act/Sigmoid_output_0: 3bfe9e89
/model.4/cv2/act/Mul_output_0: 3d0966f3
/model.5/conv/Conv_output_0: 3d6ee1f9
/model.5/act/Sigmoid_output_0: 3c004e3e
/model.5/act/Mul_output_0: 3d270c87
/model.6/cv1/conv/Conv_output_0: 3d9fb12a
/model.6/cv1/act/Sigmoid_output_0: 3c00c07f
/model.6/cv1/act/Mul_output_0: 3d483b51
/model.22/Split_output_0: 3d1f0422
/model.23/dfl/Reshape_output_0: 3e190213
/model.23/Expand_3_output_0: 3e9f3e7d
/model.23/Expand_4_output_0: 3e1d3a75
/model.23/Expand_1_output_0: 3f204081
/model.22/m.0/cv3/conv/Conv_output_0: 3e114684
/model.6/Split_output_0: 3d385ca0
/model.23/cv3.1/cv3.1.1/cv3.1.1.1/act/Mul_output_0: 3e7f3969
/model.22/m.0/Concat_output_0: 3e01c75f
/model.23/cv3.1/cv3.1.1/cv3.1.1.0/act/Sigmoid_output_0: 3c00f696
/model.6/Split_output_1: 3d483b51
/model.6/m.0/cv1/conv/Conv_output_0: 3d12c28d
/model.6/m.0/cv2/conv/Conv_output_0: 3d99b5ba
/model.6/m.0/cv1/act/Sigmoid_output_0: 3bf8c255
/model.6/m.0/cv2/act/Sigmoid_output_0: 3c00ffa0
/model.6/m.0/cv1/act/Mul_output_0: 3cccada8
/model.6/m.0/cv2/act/Mul_output_0: 3d99b2e2
/model.6/m.0/m/m.0/cv1/conv/Conv_output_0: 3d324c4b
/model.6/m.0/m/m.0/cv1/act/Sigmoid_output_0: 3bfda600
/model.6/m.0/m/m.0/cv1/act/Mul_output_0: 3d00c936
/model.6/m.0/m/m.0/cv2/conv/Conv_output_0: 3d61c9c3
/model.6/m.0/m/m.0/cv2/act/Sigmoid_output_0: 3c00e3f3
/model.6/m.0/m/m.0/cv2/act/Mul_output_0: 3d619524
/model.6/m.0/m/m.0/Add_output_0: 3d5d07cf
/model.6/m.0/m/m.1/cv1/conv/Conv_output_0: 3d40b3a7
/model.6/m.0/m/m.1/cv1/act/Sigmoid_output_0: 3bfe4315
/model.6/m.0/m/m.1/cv1/act/Mul_output_0: 3d05fb7a
/model.6/m.0/m/m.1/cv2/conv/Conv_output_0: 3d8be39d
/model.6/m.0/m/m.1/cv2/act/Sigmoid_output_0: 3c00fc69
/model.6/m.0/m/m.1/cv2/act/Mul_output_0: 3d8bdd89
/model.6/m.0/m/m.1/Add_output_0: 3da4771a
/model.6/m.0/Concat_output_0: 3da4771a
/model.6/m.0/cv3/conv/Conv_output_0: 3d97817f
/model.6/m.0/cv3/act/Sigmoid_output_0: 3c00ff44
/model.6/m.0/cv3/act/Mul_output_0: 3d977e45
/model.6/Concat_output_0: 3d977e45
/model.6/cv2/conv/Conv_output_0: 3d7844bf
/model.6/cv2/act/Sigmoid_output_0: 3c00b6ad
/model.6/cv2/act/Mul_output_0: 3d43ac15
/model.7/conv/Conv_output_0: 3d81e41e
/model.7/act/Sigmoid_output_0: 3bff3647
/model.7/act/Mul_output_0: 3d0fe962
/model.8/cv1/conv/Conv_output_0: 3d876b82
/model.8/cv1/act/Sigmoid_output_0: 3c00f8a7
/model.8/cv1/act/Mul_output_0: 3d83bb10
/model.22/m.0/m/m.1/cv1/act/Mul_output_0: 3d43e098
/model.23/Reshape_10_output_0: 3e9f3e7d
/model.23/Split_1_output_1: 3e8c9865
/model.23/Add_11_output_0: 3fa08ba9
/model.22/m.0/m/m.1/cv2/conv/Conv_output_0: 3e242e80
/model.23/cv3.1/cv3.1.2/Conv_output_0: 3e46309b
/model.8/Split_output_0: 3d83bb10
/model.23/Range_2_output_0: 3e9d3a75
/model.23/Reshape_17_output_0: 3e1d3a75
/model.23/Add_10_output_0: 3f2371ec
/model.8/Split_output_1: 3d4a8ded
/model.8/m.0/cv1/conv/Conv_output_0: 3daa0949
/model.8/m.0/cv2/conv/Conv_output_0: 3d78de1e
/model.8/m.0/cv1/act/Sigmoid_output_0: 3bf85acc
/model.8/m.0/cv2/act/Sigmoid_output_0: 3c00e2f6
/model.8/m.0/cv1/act/Mul_output_0: 3cc996ec
/model.8/m.0/cv2/act/Mul_output_0: 3d608811
/model.8/m.0/m/m.0/cv1/conv/Conv_output_0: 3d9c52ac
/model.8/m.0/m/m.0/cv1/act/Sigmoid_output_0: 3c00b5b7
/model.8/m.0/m/m.0/cv1/act/Mul_output_0: 3d4341d8
/model.8/m.0/m/m.0/cv2/conv/Conv_output_0: 3d917d10
/model.8/m.0/m/m.0/cv2/act/Sigmoid_output_0: 3c00dc5e
/model.8/m.0/m/m.0/cv2/act/Mul_output_0: 3d5a4773
/model.8/m.0/m/m.0/Add_output_0: 3d54a446
/model.8/m.0/m/m.1/cv1/conv/Conv_output_0: 3d898aab
/model.8/m.0/m/m.1/cv1/act/Sigmoid_output_0: 3c00f8a0
/model.8/m.0/m/m.1/cv1/act/Mul_output_0: 3d83affc
/model.8/m.0/m/m.1/cv2/conv/Conv_output_0: 3da4d214
/model.8/m.0/m/m.1/cv2/act/Sigmoid_output_0: 3c00f9df
/model.8/m.0/m/m.1/cv2/act/Mul_output_0: 3d85fe75
/model.8/m.0/m/m.1/Add_output_0: 3dbcaa84
/model.8/m.0/Concat_output_0: 3dbcaa84
/model.8/m.0/cv3/conv/Conv_output_0: 3d83257f
/model.8/m.0/cv3/act/Sigmoid_output_0: 3c00f24e
/model.8/m.0/cv3/act/Mul_output_0: 3d769cb4
/model.8/Concat_output_0: 3d83bb10
/model.8/cv2/conv/Conv_output_0: 3d819aae
/model.8/cv2/act/Sigmoid_output_0: 3c00e711
/model.8/cv2/act/Mul_output_0: 3d65225c
/model.9/cv1/conv/Conv_output_0: 3d4b3b59
/model.9/cv1/act/Sigmoid_output_0: 3c00c58f
/model.9/cv1/act/Mul_output_0: 3d4adc1b
/model.9/m/MaxPool_output_0: 3d4adc1b
/model.9/m_1/MaxPool_output_0: 3d4adc1b
/model.9/m_2/MaxPool_output_0: 3d4adc1b
/model.9/Concat_output_0: 3d4adc1b
/model.9/cv2/conv/Conv_output_0: 3d81dfda
/model.9/cv2/act/Sigmoid_output_0: 3c005d2c
/model.9/cv2/act/Mul_output_0: 3d29ece8
/model.10/cv1/conv/Conv_output_0: 3d95ad47
/model.10/cv1/act/Sigmoid_output_0: 3c00fe59
/model.10/cv1/act/Mul_output_0: 3d92d6eb
/model.23/Concat_24_output_0: 3f208ba9
ONNXTRT_ShapeShuffle_358_output: 0
/model.23/Reshape_2_output_0: 3e8c9865
/model.21/Concat_output_0: 3d1ce099
/model.22/m.0/cv1/act/Sigmoid_output_0: 3bd3f93e
output0: 40a11de2
/model.10/Split_output_0: 3d92d6eb
/model.23/cv3.1/cv3.1.0/cv3.1.0.1/act/Mul_output_0: 3d59d485
/model.23/cv3.2/cv3.2.1/cv3.2.1.0/conv/Conv_output_0: 3dc7d843
/model.23/ConstantOfShape_1_output_0: 0
/model.10/Split_output_1: 3d73bbfc
/model.22/m.0/m/m.1/cv1/act/Sigmoid_output_0: 3c00b726
/model.23/Range_5_output_0: 3e193265
/model.10/m/m.0/attn/qkv/conv/Conv_output_0: 3d79a4ce
/model.23/cv3.2/cv3.2.0/cv3.2.0.0/conv/Conv_output_0: 3de3af4a
/model.23/Reshape_8_output_0: 3e9f3e7d
ONNXTRT_Broadcast_365_output: 3e810204
ONNXTRT_Broadcast_261_output: 3b810204
/model.23/Reshape_12_output_0: 3e9f3e7d
/model.22/cv1/act/Sigmoid_output_0: 3c00dabc
/model.23/Concat_6_output_0: 3e8c9865
/model.22/m.0/m/m.1/cv1/conv/Conv_output_0: 3d8149be
/model.23/Range_3_output_0: 3e9d3a75
/model.23/cv2.2/cv2.2.1/act/Sigmoid_output_0: 3c010204
/model.22/m.0/cv3/act/Sigmoid_output_0: 3c00fe04
/model.23/Transpose_output_0: 3f204081
/model.23/Unsqueeze_3_output_0: 3f204081
/model.23/Squeeze_2_output_0_output: 3e810204
/model.23/dfl/Reshape_1_output_0: 3ddfcba9
/model.10/m/m.0/attn/Reshape_output_0: 3d79a4ce
/model.23/Concat_23_output_0: 3e810204
/model.23/Squeeze_1_output_0_output: 3e010204
/model.23/Reshape_11_output_0: 3e9f3e7d
/model.22/m.0/m/m.1/cv2/act/Mul_output_0: 3e030355
/model.23/cv3.2/cv3.2.0/cv3.2.0.0/act/Mul_output_0: 3dbc76f4
/model.23/cv2.1/cv2.1.1/act/Sigmoid_output_0: 3c010204
/model.10/m/m.0/attn/Split_output_0: 3d2a6f75
/model.23/dfl/Softmax_output: 3bf68226
/model.23/Sigmoid_output_0: 3beb1645
/model.23/cv3.2/cv3.2.0/cv3.2.0.0/act/Sigmoid_output_0: 3c0101bd
/model.10/m/m.0/attn/Split_output_1: 3d6f77cb
ONNXTRT_Broadcast_355_output: 3b810204
/model.23/Unsqueeze_12_output_0: 3f204081
/model.23/cv2.2/cv2.2.1/act/Mul_output_0: 3e9391b7
/model.10/m/m.0/attn/Split_output_2: 3d79a4ce
/model.10/m/m.0/attn/Transpose_output_0: 3d2a6f75
/model.10/m/m.0/attn/Reshape_2_output_0: 3d79a4ce
/model.10/m/m.0/attn/MatMul_output_0: 3f289787
/model.10/m/m.0/attn/pe/conv/Conv_output_0: 3d642d27
/model.10/m/m.0/attn/Constant_6_output_0_output: 3ab671d7
ONNXTRT_Broadcast_output: 3ab671d7
/model.10/m/m.0/attn/Mul_1_output_0: 3dee6cca
/model.10/m/m.0/attn/Softmax_output: 3b9ff69d
/model.10/m/m.0/attn/Softmax_output_0: 3b9ff69d
/model.23/cv3.2/cv3.2.0/cv3.2.0.1/act/Mul_output_0: 3d664a5f
ONNXTRT_Broadcast_499_output: 3e810204
/model.10/m/m.0/attn/Transpose_1_output_0: 3b9ff69d
/model.10/m/m.0/attn/MatMul_1_output_0: 3d65b0d0
/model.10/m/m.0/attn/Reshape_1_output_0: 3d65b0d0
/model.10/m/m.0/attn/Add_output_0: 3cef7cb8
/model.10/m/m.0/attn/proj/conv/Conv_output_0: 3d31ded4
/model.10/m/m.0/Add_output_0: 3d4c2b38
/model.10/m/m.0/ffn/ffn.0/conv/Conv_output_0: 3d4211f1
/model.10/m/m.0/ffn/ffn.0/act/Sigmoid_output_0: 3bfbc763
/model.10/m/m.0/ffn/ffn.0/act/Mul_output_0: 3ce8c4eb
/model.10/m/m.0/ffn/ffn.1/conv/Conv_output_0: 3d35bebb
/model.10/m/m.0/Add_1_output_0: 3d6d7c97
/model.10/Concat_output_0: 3d92d6eb
/model.10/cv2/conv/Conv_output_0: 3d890144
/model.10/cv2/act/Sigmoid_output_0: 3bfe9212
/model.10/cv2/act/Mul_output_0: 3d08eab6
/model.11/Resize_output_0: 3d08eab6
/model.12/Concat_output_0: 3d43ac15
/model.13/cv1/conv/Conv_output_0: 3d60052c
/model.13/cv1/act/Sigmoid_output_0: 3bfc9d69
/model.13/cv1/act/Mul_output_0: 3cf2d922
/model.23/Concat_15_output_0: 3e9f3e7d
/model.23/Range_4_output_0: 3e193265
/model.23/cv3.2/cv3.2.1/cv3.2.1.1/conv/Conv_output_0: 3eb6db2c
/model.23/dfl/Softmax_output_0: 3bf68226
ONNXTRT_Broadcast_492_output: 3c810204
/model.23/Reshape_15_output_0: 3e1d3a75
/model.13/Split_output_0: 3cf2d922
ONNXTRT_ShapeShuffle_246_output: 3c010204
/model.22/m.0/m/m.0/cv2/act/Sigmoid_output_0: 3c00ab05
/model.23/Reshape_9_output_0: 3e9f3e7d
/model.13/Split_output_1: 3cc8e938
/model.13/m.0/cv1/conv/Conv_output_0: 3d13a101
/model.13/m.0/cv1/act/Sigmoid_output_0: 3bfea404
/model.13/m.0/cv1/act/Mul_output_0: 3d099e1b
/model.13/m.0/cv2/conv/Conv_output_0: 3d4e9a6c
/model.13/m.0/cv2/act/Sigmoid_output_0: 3c00cb8f
/model.13/m.0/cv2/act/Mul_output_0: 3d4e4335
/model.13/m.0/Add_output_0: 3d45a041
/model.13/Concat_output_0: 3d45a041
/model.13/cv2/conv/Conv_output_0: 3d4c0a32
/model.13/cv2/act/Sigmoid_output_0: 3bfa851b
/model.13/cv2/act/Mul_output_0: 3cdbc786
/model.14/Resize_output_0: 3cdbc786
/model.15/Concat_output_0: 3d0966f3
/model.16/cv1/conv/Conv_output_0: 3d62ed3a
/model.16/cv1/act/Sigmoid_output_0: 3bf37457
/model.16/cv1/act/Mul_output_0: 3cab6de9
/model.23/Reshape_1_output_0: 3e46309b
/model.22/m.0/m/m.0/cv2/conv/Conv_output_0: 3d87c364
/model.23/Constant_67_output_0_output: 3c810204
/model.23/Concat_1_output_0: 3e46309b
ONNXTRT_ShapeShuffle_256_output: 3c010204
/model.22/m.0/m/m.0/cv1/act/Mul_output_0: 3cfc1041
/model.16/Split_output_0: 3cab6de9
/model.22/m.0/m/m.1/Add_output_0: 3e01c75f
/model.22/cv2/act/Sigmoid_output_0: 3c010067
/model.22/m.0/cv2/conv/Conv_output_0: 3d2fa9a6
/model.16/Split_output_1: 3c99663c
/model.16/m.0/cv1/conv/Conv_output_0: 3d0d5389
/model.16/m.0/cv1/act/Sigmoid_output_0: 3bfed485
/model.16/m.0/cv1/act/Mul_output_0: 3d0b94d9
/model.16/m.0/cv2/conv/Conv_output_0: 3d6083b7
/model.16/m.0/cv2/act/Sigmoid_output_0: 3c003131
/model.16/m.0/cv2/act/Mul_output_0: 3d22139c
/model.16/m.0/Add_output_0: 3d27df3e
/model.16/Concat_output_0: 3d27df3e
/model.16/cv2/conv/Conv_output_0: 3d8a6a39
/model.16/cv2/act/Sigmoid_output_0: 3bffb038
/model.16/cv2/act/Mul_output_0: 3d163075
/model.17/conv/Conv_output_0: 3d3b9a8f
/model.23/cv2.0/cv2.0.0/conv/Conv_output_0: 3db1ddaa
/model.23/cv3.0/cv3.0.0/cv3.0.0.0/conv/Conv_output_0: 3d72641d
/model.17/act/Sigmoid_output_0: 3bfe19f8
/model.23/cv2.0/cv2.0.0/act/Sigmoid_output_0: 3bfff314
/model.23/cv3.0/cv3.0.0/cv3.0.0.0/act/Sigmoid_output_0: 3c00748e
/model.17/act/Mul_output_0: 3d048bd7
/model.23/cv2.0/cv2.0.0/act/Mul_output_0: 3d1a3026
/model.23/cv3.0/cv3.0.0/cv3.0.0.0/act/Mul_output_0: 3d2efa01
/model.18/Concat_output_0: 3d048bd7
/model.23/cv2.0/cv2.0.1/conv/Conv_output_0: 3e94a022
/model.23/cv3.0/cv3.0.0/cv3.0.0.1/conv/Conv_output_0: 3d93daff
/model.19/cv1/conv/Conv_output_0: 3d81d1ec
/model.23/cv2.0/cv2.0.1/act/Sigmoid_output_0: 3c010204
/model.23/cv3.0/cv3.0.0/cv3.0.0.1/act/Sigmoid_output_0: 3c00fe90
/model.19/cv1/act/Sigmoid_output_0: 3c00712f
/model.23/cv2.0/cv2.0.1/act/Mul_output_0: 3e94a022
/model.23/cv3.0/cv3.0.0/cv3.0.0.1/act/Mul_output_0: 3d93d70a
/model.19/cv1/act/Mul_output_0: 3d2e3335
/model.23/cv2.0/cv2.0.2/Conv_output_0: 3e190213
/model.23/cv3.0/cv3.0.1/cv3.0.1.0/conv/Conv_output_0: 3d8ed798
/model.23/Concat_20_output_0: 3e1d3a75
/model.23/dfl/Transpose_output_0: 3e190213
/model.23/Sub_1_output_0: 3e328c71
/model.22/cv2/conv/Conv_output_0: 3dd8a89f
/model.23/Unsqueeze_10_output_0: 3e1d3a75
/model.23/cv2.2/cv2.2.0/act/Mul_output_0: 3d85b101
/model.19/Split_output_0: 3d2e3335
/model.23/Unsqueeze_9_output_0: 3e1d3a75
/model.22/Concat_output_0: 3d916039
/model.23/dfl/conv/Conv_output_0: 3ddfcba9
/model.19/Split_output_1: 3cf2845f
/model.23/cv3.0/cv3.0.1/cv3.0.1.0/act/Sigmoid_output_0: 3c0098b4
/model.19/m.0/cv1/conv/Conv_output_0: 3d6056ed
/model.23/cv3.0/cv3.0.1/cv3.0.1.0/act/Mul_output_0: 3d38b274
/model.19/m.0/cv1/act/Sigmoid_output_0: 3c005067
/model.23/cv3.0/cv3.0.1/cv3.0.1.1/conv/Conv_output_0: 3ebe19c2
/model.19/m.0/cv1/act/Mul_output_0: 3d277337
/model.23/cv3.0/cv3.0.1/cv3.0.1.1/act/Sigmoid_output_0: 3c010204
/model.19/m.0/cv2/conv/Conv_output_0: 3d85f769
/model.23/cv3.0/cv3.0.1/cv3.0.1.1/act/Mul_output_0: 3e47fbe4
/model.19/m.0/cv2/act/Sigmoid_output_0: 3c00f446
/model.23/cv3.0/cv3.0.2/Conv_output_0: 3e3ff630
/model.19/m.0/cv2/act/Mul_output_0: 3d7af2d7
/model.23/Concat_output_0: 3e3ff630
/model.19/m.0/Add_output_0: 3d8272ae
/model.22/m.0/m/m.0/cv1/act/Sigmoid_output_0: 3bfd4948
/model.22/m.0/m/m.0/cv1/conv/Conv_output_0: 3d529741
/model.19/Concat_output_0: 3d8272ae
/model.23/cv3.1/cv3.1.1/cv3.1.1.1/act/Sigmoid_output_0: 3c010204
/model.22/m.0/cv2/act/Mul_output_0: 3d2ee8a1
/model.22/cv2/act/Mul_output_0: 3da0105c
/model.19/cv2/conv/Conv_output_0: 3d99ad24
/model.23/cv3.1/cv3.1.1/cv3.1.1.1/conv/Conv_output_0: 3eb1e1ca
/model.23/cv2.1/cv2.1.1/act/Mul_output_0: 3e64e037
/model.23/cv2.2/cv2.2.2/Conv_output_0: 3dacdd87
/model.22/m.0/cv2/act/Sigmoid_output_0: 3c007443
/model.19/cv2/act/Sigmoid_output_0: 3c00cbb0
/model.23/cv3.2/cv3.2.1/cv3.2.1.0/act/Mul_output_0: 3dc7d80c
/model.22/m.0/m/m.0/cv2/act/Mul_output_0: 3d3ef535
/model.23/cv3.1/cv3.1.1/cv3.1.1.0/act/Mul_output_0: 3d8074df
/model.23/Constant_14_output_0_output: 0
/model.23/Constant_15_output_0_output: 3c010204
/model.23/Concat_10_output_0: 3f204081
/model.22/cv1/conv/Conv_output_0: 3d69c1be
/model.23/Unsqueeze_4_output_0: 3f204081
/model.22/Split_output_1: 3d58e5eb
ONNXTRT_Broadcast_353_output: 3b810204
/model.23/Unsqueeze_7_output_0: 3e9f3e7d
(Unnamed Layer* 649) [Constant]_output: 0
/model.23/Range_output_0: 3f1f3e7d
ONNXTRT_ShapeShuffle_151_output: 3c010204
/model.23/cv3.2/cv3.2.0/cv3.2.0.1/act/Sigmoid_output_0: 3c00e803
/model.23/cv2.2/cv2.2.0/act/Sigmoid_output_0: 3c00f9b7
/model.23/cv3.1/cv3.1.1/cv3.1.1.0/conv/Conv_output_0: 3d808041
ONNXTRT_ShapeShuffle_264_output: 0
/model.23/cv2.1/cv2.1.2/Conv_output_0: 3def290a
/model.23/Reshape_7_output_0: 3f204081
/model.23/Concat_22_output_0: 3f204081
/model.23/Range_1_output_0: 3f1f3e7d
ONNXTRT_ShapeShuffle_161_output: 3c010204
/model.23/cv3.2/cv3.2.1/cv3.2.1.1/act/Sigmoid_output_0: 3c010204
/model.19/cv2/act/Mul_output_0: 3d4e5766
/model.23/Reshape_output_0: 3e3ff630
/model.23/Constant_16_output_0_output: 3b810204
ONNXTRT_Broadcast_165_output: 3b810204
/model.23/Reshape_4_output_0: 3f204081
ONNXTRT_Broadcast_167_output: 3b810204
/model.23/Reshape_3_output_0: 3f204081
/model.23/Transpose_1_output_0: 3e810204
/model.22/m.0/cv1/conv/Conv_output_0: 3d1b41b5
/model.20/conv/Conv_output_0: 3d8d66a7
/model.23/cv2.1/cv2.1.0/conv/Conv_output_0: 3df9305d
/model.23/cv3.1/cv3.1.0/cv3.1.0.0/conv/Conv_output_0: 3daeb791
(Unnamed Layer* 381) [Constant]_output: 0
ONNXTRT_ShapeShuffle_170_output: 0
/model.23/ConstantOfShape_output_0: 0
ONNXTRT_Broadcast_269_output: 3e010204
/model.22/m.0/cv3/act/Mul_output_0: 3d916039
/model.23/cv2.2/cv2.2.1/conv/Conv_output_0: 3e9391b7
/model.23/Div_1_output_0: 3f208ba9
/model.23/Reshape_5_output_0: 3f204081
/model.23/Reshape_6_output_0: 3f204081
/model.20/act/Sigmoid_output_0: 3c000dfe
/model.23/cv2.1/cv2.1.0/act/Sigmoid_output_0: 3c00ee3b
/model.23/cv3.1/cv3.1.0/cv3.1.0.0/act/Sigmoid_output_0: 3c00fb37
/model.23/Squeeze_output_0_output: 3d810204
ONNXTRT_Broadcast_175_output: 3d810204
/model.23/Add_2_output_0: 3d810204
/model.23/Split_1_output_0: 3e190213
/model.20/act/Mul_output_0: 3d1ce099
/model.23/cv2.1/cv2.1.0/act/Mul_output_0: 3d6f26ad
/model.23/cv3.1/cv3.1.0/cv3.1.0.0/act/Mul_output_0: 3d88d64e
/model.23/Concat_2_output_0: 3e8c9865
/model.23/Expand_2_output_0: 3e9f3e7d
/model.23/Reshape_13_output_0: 3e1d3a75
/model.23/cv3.2/cv3.2.1/cv3.2.1.0/act/Sigmoid_output_0: 3c0101e1
(Unnamed Layer* 515) [Constant]_output: 0
/model.23/cv3.1/cv3.1.0/cv3.1.0.1/conv/Conv_output_0: 3d6310bb
/model.23/Expand_5_output_0: 3e1d3a75
ONNXTRT_ShapeShuffle_350_output: 3c010204
/model.22/m.0/m/m.0/Add_output_0: 3d3a068a
/model.23/cv2.2/cv2.2.0/conv/Conv_output_0: 3dee6774
/model.23/Expand_output_0: 3f204081
/model.23/Reshape_16_output_0: 3e1d3a75
ONNXTRT_Broadcast_259_output: 3b810204
