TRT-100300-MinMaxCalibration
images: 3c010204
/model.0/conv/Conv_output_0: 3f82c343
/model.0/act/Sigmoid_output_0: 3c010204
/model.0/act/Mul_output_0: 3f80844f
/model.1/conv/Conv_output_0: 3f79a51c
/model.1/act/Sigmoid_output_0: 3c010204
/model.1/act/Mul_output_0: 3f20bc0b
/model.2/cv1/conv/Conv_output_0: 3f0e1223
/model.2/cv1/act/Sigmoid_output_0: 3c010204
/model.2/cv1/act/Mul_output_0: 3e1fd138
/model.23/Reshape_10_output_0: 3e9f3e7d
/model.23/Split_1_output_0: 3de96f52
/model.23/Add_5_output_0: 3e010204
/model.23/dfl/conv/Conv_output_0: 3ddf4941
/model.23/cv3.1/cv3.1.1/cv3.1.1.0/act/Sigmoid_output_0: 3c010204
ONNXTRT_ShapeShuffle_264_output: 0
/model.2/Split_output_0: 3e1fd138
/model.22/m.0/m/m.1/cv2/act/Mul_output_0: 3dc0240b
/model.23/ConstantOfShape_1_output_0: 0
/model.22/m.0/cv3/act/Mul_output_0: 3d90d03e
/model.2/Split_output_1: 3e0ade45
/model.2/m.0/cv1/conv/Conv_output_0: 3e05f5a0
/model.2/m.0/cv2/conv/Conv_output_0: 3e7a9d62
/model.2/m.0/cv1/act/Sigmoid_output_0: 3c0095b9
/model.2/m.0/cv2/act/Sigmoid_output_0: 3c0101d8
/model.2/m.0/cv1/act/Mul_output_0: 3d37c6b5
/model.2/m.0/cv2/act/Mul_output_0: 3dc41739
/model.2/m.0/m/m.0/cv1/conv/Conv_output_0: 3e05a574
/model.2/m.0/m/m.0/cv1/act/Sigmoid_output_0: 3c0101e4
/model.2/m.0/m/m.0/cv1/act/Mul_output_0: 3dc91f0c
/model.2/m.0/m/m.0/cv2/conv/Conv_output_0: 3d9a29a8
/model.2/m.0/m/m.0/cv2/act/Sigmoid_output_0: 3c00d3a1
/model.2/m.0/m/m.0/cv2/act/Mul_output_0: 3d537e58
/model.2/m.0/m/m.0/Add_output_0: 3d59db74
/model.2/m.0/m/m.1/cv1/conv/Conv_output_0: 3d946d31
/model.2/m.0/m/m.1/cv1/act/Sigmoid_output_0: 3c00707a
/model.2/m.0/m/m.1/cv1/act/Mul_output_0: 3d2e09f8
/model.2/m.0/m/m.1/cv2/conv/Conv_output_0: 3d7e5cc3
/model.2/m.0/m/m.1/cv2/act/Sigmoid_output_0: 3c00f59d
/model.2/m.0/m/m.1/cv2/act/Mul_output_0: 3d7e444e
/model.2/m.0/m/m.1/Add_output_0: 3da627f3
/model.2/m.0/Concat_output_0: 3dc41739
/model.2/m.0/cv3/conv/Conv_output_0: 3e0e8db9
/model.2/m.0/cv3/act/Sigmoid_output_0: 3c01017f
/model.2/m.0/cv3/act/Mul_output_0: 3db25e44
/model.2/Concat_output_0: 3e1fd138
/model.2/cv2/conv/Conv_output_0: 3e1853e4
/model.2/cv2/act/Sigmoid_output_0: 3c00e606
/model.2/cv2/act/Mul_output_0: 3d63e6e6
/model.3/conv/Conv_output_0: 3dbc04a2
/model.3/act/Sigmoid_output_0: 3c00c7e6
/model.3/act/Mul_output_0: 3d4c2589
/model.4/cv1/conv/Conv_output_0: 3d8e5f77
/model.4/cv1/act/Sigmoid_output_0: 3c00a285
/model.4/cv1/act/Mul_output_0: 3d3be816
/model.23/Concat_22_output_0: 3f204081
/model.23/Reshape_11_output_0: 3e9f3e7d
/model.23/Reshape_14_output_0: 3e1d3a75
/model.23/cv2.2/cv2.2.1/act/Sigmoid_output_0: 3c010204
/model.23/cv2.2/cv2.2.0/act/Mul_output_0: 3da7e030
/model.22/m.0/m/m.1/cv1/act/Sigmoid_output_0: 3c00f58d
/model.4/Split_output_0: 3d3be816
/model.23/Split_1_output_1: 3e79eef5
/model.23/cv3.2/cv3.2.2/Conv_output_0: 3e50f716
/model.23/Reshape_8_output_0: 3e9f3e7d
/model.4/Split_output_1: 3d2030a3
/model.4/m.0/cv1/conv/Conv_output_0: 3d005f27
/model.4/m.0/cv2/conv/Conv_output_0: 3d9bf7a4
/model.4/m.0/cv1/act/Sigmoid_output_0: 3bfcbb38
/model.4/m.0/cv2/act/Sigmoid_output_0: 3c00e351
/model.4/m.0/cv1/act/Mul_output_0: 3cf45d45
/model.4/m.0/cv2/act/Mul_output_0: 3d60e78a
/model.4/m.0/m/m.0/cv1/conv/Conv_output_0: 3d7f5754
/model.4/m.0/m/m.0/cv1/act/Sigmoid_output_0: 3c00f5fc
/model.4/m.0/m/m.0/cv1/act/Mul_output_0: 3d7f3f83
/model.4/m.0/m/m.0/cv2/conv/Conv_output_0: 3d6b12a9
/model.4/m.0/m/m.0/cv2/act/Sigmoid_output_0: 3c00eb77
/model.4/m.0/m/m.0/cv2/act/Mul_output_0: 3d6ae992
/model.4/m.0/m/m.0/Add_output_0: 3d797eb1
/model.4/m.0/m/m.1/cv1/conv/Conv_output_0: 3d69d8e1
/model.4/m.0/m/m.1/cv1/act/Sigmoid_output_0: 3c00cce2
/model.4/m.0/m/m.1/cv1/act/Mul_output_0: 3d4f1071
/model.4/m.0/m/m.1/cv2/conv/Conv_output_0: 3d934bac
/model.4/m.0/m/m.1/cv2/act/Sigmoid_output_0: 3c00fe71
/model.4/m.0/m/m.1/cv2/act/Mul_output_0: 3d934797
/model.4/m.0/m/m.1/Add_output_0: 3dc07fc8
/model.4/m.0/Concat_output_0: 3dc07fc8
/model.4/m.0/cv3/conv/Conv_output_0: 3d8a2e75
/model.4/m.0/cv3/act/Sigmoid_output_0: 3c00ec31
/model.4/m.0/cv3/act/Mul_output_0: 3d6bfaa8
/model.4/Concat_output_0: 3d6bfaa8
/model.4/cv2/conv/Conv_output_0: 3d961fcc
/model.4/cv2/act/Sigmoid_output_0: 3c00d2b6
/model.4/cv2/act/Mul_output_0: 3d52daf2
/model.5/conv/Conv_output_0: 3d85f21e
/model.5/act/Sigmoid_output_0: 3c00f149
/model.5/act/Mul_output_0: 3d74958f
/model.6/cv1/conv/Conv_output_0: 3d74ab2a
/model.6/cv1/act/Sigmoid_output_0: 3c00dfbd
/model.6/cv1/act/Mul_output_0: 3d5d5365
/model.23/Reshape_9_output_0: 3e9f3e7d
ONNXTRT_Broadcast_259_output: 3b810204
/model.23/cv2.2/cv2.2.0/conv/Conv_output_0: 3da7e17d
/model.23/cv2.1/cv2.1.1/conv/Conv_output_0: 3e86d13b
/model.23/Expand_5_output_0: 3e1d3a75
/model.23/Range_3_output_0: 3e9d3a75
/model.6/Split_output_0: 3d33804d
/model.23/Concat_15_output_0: 3e9f3e7d
ONNXTRT_Broadcast_492_output: 3c810204
/model.22/m.0/m/m.1/cv1/conv/Conv_output_0: 3d7e34b5
/model.6/Split_output_1: 3d5d5365
/model.6/m.0/cv1/conv/Conv_output_0: 3d14122a
/model.6/m.0/cv2/conv/Conv_output_0: 3d6fb6a9
/model.6/m.0/cv1/act/Sigmoid_output_0: 3bff6cd2
/model.6/m.0/cv2/act/Sigmoid_output_0: 3c00ee7d
/model.6/m.0/cv1/act/Mul_output_0: 3d12958f
/model.6/m.0/cv2/act/Mul_output_0: 3d6f9261
/model.6/m.0/m/m.0/cv1/conv/Conv_output_0: 3d5b11ce
/model.6/m.0/m/m.0/cv1/act/Sigmoid_output_0: 3c00950f
/model.6/m.0/m/m.0/cv1/act/Mul_output_0: 3d37931b
/model.6/m.0/m/m.0/cv2/conv/Conv_output_0: 3d3fff8c
/model.6/m.0/m/m.0/cv2/act/Sigmoid_output_0: 3bfe70ed
/model.6/m.0/m/m.0/cv2/act/Mul_output_0: 3d07a7d4
/model.6/m.0/m/m.0/Add_output_0: 3d0d1cdd
/model.6/m.0/m/m.1/cv1/conv/Conv_output_0: 3d5054a1
/model.6/m.0/m/m.1/cv1/act/Sigmoid_output_0: 3c00a5c7
/model.6/m.0/m/m.1/cv1/act/Mul_output_0: 3d3d0aef
/model.6/m.0/m/m.1/cv2/conv/Conv_output_0: 3dcba2db
/model.6/m.0/m/m.1/cv2/act/Sigmoid_output_0: 3c0101e9
/model.6/m.0/m/m.1/cv2/act/Mul_output_0: 3dcba2af
/model.6/m.0/m/m.1/Add_output_0: 3dc542f3
/model.6/m.0/Concat_output_0: 3dc542f3
/model.6/m.0/cv3/conv/Conv_output_0: 3d72dc89
/model.6/m.0/cv3/act/Sigmoid_output_0: 3c00ae51
/model.6/m.0/cv3/act/Mul_output_0: 3d4039be
/model.6/Concat_output_0: 3d5d5365
/model.6/cv2/conv/Conv_output_0: 3d82e31a
/model.6/cv2/act/Sigmoid_output_0: 3c00e9ea
/model.6/cv2/act/Mul_output_0: 3d68c052
/model.7/conv/Conv_output_0: 3db5f3df
/model.7/act/Sigmoid_output_0: 3c010199
/model.7/act/Mul_output_0: 3db5f348
/model.8/cv1/conv/Conv_output_0: 3dae6765
/model.8/cv1/act/Sigmoid_output_0: 3c01015c
/model.8/cv1/act/Mul_output_0: 3dae6681
/model.19/m.0/m/m.1/Add_output_0: 3e39fcde
ONNXTRT_ShapeShuffle_358_output: 0
ONNXTRT_ShapeShuffle_350_output: 3c010204
/model.23/ConstantOfShape_2_output_0: 0
/model.23/Range_5_output_0: 3e193265
/model.23/Range_2_output_0: 3e9d3a75
/model.8/Split_output_0: 3dad2aa9
/model.22/m.0/m/m.0/cv2/act/Sigmoid_output_0: 3c00eaf4
/model.22/m.0/m/m.1/Add_output_0: 3db74414
/model.22/cv1/act/Mul_output_0: 3d6d13b4
/model.8/Split_output_1: 3dae6681
/model.8/m.0/cv1/conv/Conv_output_0: 3d71237a
/model.8/m.0/cv2/conv/Conv_output_0: 3da4bed3
/model.8/m.0/cv1/act/Sigmoid_output_0: 3c006644
/model.8/m.0/cv2/act/Sigmoid_output_0: 3c0100cd
/model.8/m.0/cv1/act/Mul_output_0: 3d2bcd5d
/model.8/m.0/cv2/act/Mul_output_0: 3da4bd46
/model.8/m.0/m/m.0/cv1/conv/Conv_output_0: 3d840149
/model.8/m.0/m/m.0/cv1/act/Sigmoid_output_0: 3c00ad6a
/model.8/m.0/m/m.0/cv1/act/Mul_output_0: 3d3fdf91
/model.8/m.0/m/m.0/cv2/conv/Conv_output_0: 3d5714e0
/model.8/m.0/m/m.0/cv2/act/Sigmoid_output_0: 3c00b709
/model.8/m.0/m/m.0/cv2/act/Mul_output_0: 3d43d3d0
/model.8/m.0/m/m.0/Add_output_0: 3d4d6ad7
/model.8/m.0/m/m.1/cv1/conv/Conv_output_0: 3d9d6147
/model.8/m.0/m/m.1/cv1/act/Sigmoid_output_0: 3c01001f
/model.8/m.0/m/m.1/cv1/act/Mul_output_0: 3d9d5ef7
/model.8/m.0/m/m.1/cv2/conv/Conv_output_0: 3db52f41
/model.8/m.0/m/m.1/cv2/act/Sigmoid_output_0: 3c010194
/model.8/m.0/m/m.1/cv2/act/Mul_output_0: 3db52ea2
/model.8/m.0/m/m.1/Add_output_0: 3dbbae94
/model.8/m.0/Concat_output_0: 3dbbae94
/model.8/m.0/cv3/conv/Conv_output_0: 3d9010ef
/model.8/m.0/cv3/act/Sigmoid_output_0: 3c00fda9
/model.8/m.0/cv3/act/Mul_output_0: 3d900c11
/model.8/Concat_output_0: 3dae6681
/model.8/cv2/conv/Conv_output_0: 3db37f10
/model.8/cv2/act/Sigmoid_output_0: 3c00e0a8
/model.8/cv2/act/Mul_output_0: 3d5e3566
/model.9/cv1/conv/Conv_output_0: 3d50355b
/model.9/cv1/act/Sigmoid_output_0: 3c00ce32
/model.9/cv1/act/Mul_output_0: 3d4fe1b9
/model.9/m/MaxPool_output_0: 3d4fe1b9
/model.9/m_1/MaxPool_output_0: 3d4fe1b9
/model.9/m_2/MaxPool_output_0: 3d4fe1b9
/model.9/Concat_output_0: 3d4fe1b9
/model.9/cv2/conv/Conv_output_0: 3da35aa6
/model.9/cv2/act/Sigmoid_output_0: 3c00ff09
/model.9/cv2/act/Mul_output_0: 3d963aea
/model.10/cv1/conv/Conv_output_0: 3da202b5
/model.10/cv1/act/Sigmoid_output_0: 3c010095
/model.10/cv1/act/Mul_output_0: 3da200e9
(Unnamed Layer* 601) [Constant]_output: 0
/model.23/Reshape_15_output_0: 3e1d3a75
/model.23/Constant_67_output_0_output: 3c810204
/model.23/cv3.2/cv3.2.0/cv3.2.0.0/conv/Conv_output_0: 3e1b7361
/model.23/cv3.2/cv3.2.1/cv3.2.1.0/conv/Conv_output_0: 3e56fa95
/model.22/cv2/act/Mul_output_0: 3d8e4496
/model.10/Split_output_0: 3da200e9
/model.22/m.0/cv3/conv/Conv_output_0: 3db6056c
/model.23/dfl/Softmax_output_0: 3bf61283
/model.22/m.0/m/m.0/Add_output_0: 3d798536
/model.10/Split_output_1: 3d864645
/model.19/m.0/m/m.1/cv2/act/Mul_output_0: 3e3941cc
/model.23/Concat_23_output_0: 3e810204
/model.10/m/m.0/attn/qkv/conv/Conv_output_0: 3d847e9e
/model.23/Div_1_output_0: 3f2077a8
/model.23/dfl/Softmax_output: 3bf61283
/model.22/cv2/act/Sigmoid_output_0: 3c00fd2f
ONNXTRT_Broadcast_499_output: 3e810204
/model.23/Transpose_1_output_0: 3e810204
/model.22/m.0/m/m.0/cv2/act/Mul_output_0: 3d6a2ff4
/model.23/Sub_output_0: 3f1fbc53
/model.23/Add_11_output_0: 3fa077a8
/model.23/Concat_10_output_0: 3f204081
/model.22/m.0/m/m.1/cv2/conv/Conv_output_0: 3dc4ddae
/model.23/cv3.2/cv3.2.1/cv3.2.1.0/act/Mul_output_0: 3e56fa95
/model.23/cv3.2/cv3.2.0/cv3.2.0.0/act/Mul_output_0: 3db492c5
/model.23/Expand_2_output_0: 3e9f3e7d
ONNXTRT_Broadcast_355_output: 3b810204
/model.23/cv3.2/cv3.2.0/cv3.2.0.1/act/Sigmoid_output_0: 3c00fe07
/model.23/cv3.2/cv3.2.0/cv3.2.0.0/act/Sigmoid_output_0: 3c01018f
/model.10/m/m.0/attn/Reshape_output_0: 3d847e9e
/model.23/Squeeze_1_output_0_output: 3e010204
ONNXTRT_ShapeShuffle_256_output: 3c010204
/model.23/Reshape_2_output_0: 3e50f716
ONNXTRT_Broadcast_261_output: 3b810204
/model.23/Sub_1_output_0: 3e43769a
/model.22/m.0/m/m.0/cv1/act/Mul_output_0: 3d3a31ad
/model.10/m/m.0/attn/Split_output_0: 3d4483a6
ONNXTRT_ShapeShuffle_340_output: 3c010204
/model.23/Squeeze_2_output_0_output: 3e810204
/model.22/m.0/cv2/act/Mul_output_0: 3d419b99
/model.10/m/m.0/attn/Split_output_1: 3d7fa769
/model.22/m.0/Concat_output_0: 3db74414
/model.23/Reshape_1_output_0: 3e79eef5
/model.23/Add_10_output_0: 3f252fee
/model.10/m/m.0/attn/Split_output_2: 3d847e9e
/model.10/m/m.0/attn/Transpose_output_0: 3d4483a6
/model.10/m/m.0/attn/Reshape_2_output_0: 3d847e9e
/model.10/m/m.0/attn/MatMul_output_0: 3f20ad3b
/model.10/m/m.0/attn/pe/conv/Conv_output_0: 3d458223
/model.10/m/m.0/attn/Constant_6_output_0_output: 3ab671d7
ONNXTRT_Broadcast_output: 3ab671d7
/model.10/m/m.0/attn/Mul_1_output_0: 3de33b2c
/model.10/m/m.0/attn/Softmax_output: 3bd74b03
/model.10/m/m.0/attn/Softmax_output_0: 3bd74b03
/model.22/m.0/m/m.0/cv1/act/Sigmoid_output_0: 3c009d66
/model.23/cv3.1/cv3.1.1/cv3.1.1.1/act/Mul_output_0: 3e4bb009
/model.10/m/m.0/attn/Transpose_1_output_0: 3bd74b03
/model.10/m/m.0/attn/MatMul_1_output_0: 3d3a683d
/model.10/m/m.0/attn/Reshape_1_output_0: 3d3a683d
/model.10/m/m.0/attn/Add_output_0: 3d21412c
/model.10/m/m.0/attn/proj/conv/Conv_output_0: 3d2ead4a
/model.10/m/m.0/Add_output_0: 3d8a8d60
/model.10/m/m.0/ffn/ffn.0/conv/Conv_output_0: 3d4ec0f7
/model.10/m/m.0/ffn/ffn.0/act/Sigmoid_output_0: 3c00c063
/model.10/m/m.0/ffn/ffn.0/act/Mul_output_0: 3d482d0a
/model.10/m/m.0/ffn/ffn.1/conv/Conv_output_0: 3d8b9113
/model.10/m/m.0/Add_1_output_0: 3d802ebc
/model.10/Concat_output_0: 3da200e9
/model.10/cv2/conv/Conv_output_0: 3da037e3
/model.10/cv2/act/Sigmoid_output_0: 3c00ea78
/model.10/cv2/act/Mul_output_0: 3d6982b1
/model.11/Resize_output_0: 3d6982b1
/model.12/Concat_output_0: 3d6982b1
/model.13/cv1/conv/Conv_output_0: 3d80f862
/model.13/cv1/act/Sigmoid_output_0: 3c00c4e9
/model.13/cv1/act/Mul_output_0: 3d4a82fc
/model.23/cv2.1/cv2.1.1/act/Mul_output_0: 3e86d13b
/model.22/m.0/m/m.0/cv2/conv/Conv_output_0: 3d8d0a9e
/model.23/dfl/Reshape_1_output_0: 3ddf4941
/model.23/Concat_1_output_0: 3e79eef5
/model.23/cv3.1/cv3.1.0/cv3.1.0.0/act/Mul_output_0: 3dc4ac53
/model.22/m.0/cv1/act/Mul_output_0: 3ce51698
/model.13/Split_output_0: 3d4a82fc
/model.23/Unsqueeze_12_output_0: 3f204081
/model.23/cv3.1/cv3.1.1/cv3.1.1.1/act/Sigmoid_output_0: 3c010204
/model.23/cv3.1/cv3.1.1/cv3.1.1.1/conv/Conv_output_0: 3e4bb009
/model.13/Split_output_1: 3d284c1c
/model.13/m.0/cv1/conv/Conv_output_0: 3d2f7ea1
/model.13/m.0/cv2/conv/Conv_output_0: 3d790d03
/model.13/m.0/cv1/act/Sigmoid_output_0: 3bf77f8f
/model.13/m.0/cv2/act/Sigmoid_output_0: 3c00e783
/model.13/m.0/cv1/act/Mul_output_0: 3cc36b69
/model.13/m.0/cv2/act/Mul_output_0: 3d65ac36
/model.13/m.0/m/m.0/cv1/conv/Conv_output_0: 3d8200c5
/model.13/m.0/m/m.0/cv1/act/Sigmoid_output_0: 3c00c471
/model.13/m.0/m/m.0/cv1/act/Mul_output_0: 3d4a429b
/model.13/m.0/m/m.0/cv2/conv/Conv_output_0: 3d958018
/model.13/m.0/m/m.0/cv2/act/Sigmoid_output_0: 3c00fd1f
/model.13/m.0/m/m.0/cv2/act/Mul_output_0: 3d8e0ca4
/model.13/m.0/m/m.0/Add_output_0: 3d90e40e
/model.13/m.0/m/m.1/cv1/conv/Conv_output_0: 3d88ae5c
/model.13/m.0/m/m.1/cv1/act/Sigmoid_output_0: 3c00b6e6
/model.13/m.0/m/m.1/cv1/act/Mul_output_0: 3d43c47b
/model.13/m.0/m/m.1/cv2/conv/Conv_output_0: 3da9f14b
/model.13/m.0/m/m.1/cv2/act/Sigmoid_output_0: 3c0100aa
/model.13/m.0/m/m.1/cv2/act/Mul_output_0: 3da301b6
/model.13/m.0/m/m.1/Add_output_0: 3da3ac3b
/model.13/m.0/Concat_output_0: 3da3ac3b
/model.13/m.0/cv3/conv/Conv_output_0: 3d6726bb
/model.13/m.0/cv3/act/Sigmoid_output_0: 3c00c5c4
/model.13/m.0/cv3/act/Mul_output_0: 3d4af8a0
/model.13/Concat_output_0: 3d4af8a0
/model.13/cv2/conv/Conv_output_0: 3d708f0c
/model.13/cv2/act/Sigmoid_output_0: 3bff469d
/model.13/cv2/act/Mul_output_0: 3d10b13e
/model.14/Resize_output_0: 3d10b13e
/model.15/Concat_output_0: 3d52daf2
/model.16/cv1/conv/Conv_output_0: 3d37aaf6
/model.16/cv1/act/Sigmoid_output_0: 3bfe13a5
/model.16/cv1/act/Mul_output_0: 3d0454ab
/model.23/cv3.1/cv3.1.1/cv3.1.1.0/act/Mul_output_0: 3e6aa245
output0: 40a7eae2
/model.23/Unsqueeze_6_output_0: 3e9f3e7d
/model.22/m.0/cv1/conv/Conv_output_0: 3d1e7321
/model.23/Mul_5_output_0: 40a7eae2
(Unnamed Layer* 735) [Constant]_output: 0
/model.16/Split_output_0: 3d0454ab
/model.22/m.0/m/m.1/cv2/act/Sigmoid_output_0: 3c0101cc
/model.22/Split_output_1: 3d6d13b4
/model.22/Split_output_0: 3d5ca315
/model.16/Split_output_1: 3cd98e3e
/model.16/m.0/cv1/conv/Conv_output_0: 3cd19027
/model.16/m.0/cv2/conv/Conv_output_0: 3d6dfa7b
/model.16/m.0/cv1/act/Sigmoid_output_0: 3bcea683
/model.16/m.0/cv2/act/Sigmoid_output_0: 3c00ea68
/model.16/m.0/cv1/act/Mul_output_0: 3c0fd5d6
/model.16/m.0/cv2/act/Mul_output_0: 3d696cc7
/model.16/m.0/m/m.0/cv1/conv/Conv_output_0: 3d2461ee
/model.16/m.0/m/m.0/cv1/act/Sigmoid_output_0: 3bf9b87b
/model.16/m.0/m/m.0/cv1/act/Mul_output_0: 3cd48d23
/model.16/m.0/m/m.0/cv2/conv/Conv_output_0: 3d3e985f
/model.16/m.0/m/m.0/cv2/act/Sigmoid_output_0: 3c0029f1
/model.16/m.0/m/m.0/cv2/act/Mul_output_0: 3d20f02a
/model.16/m.0/m/m.0/Add_output_0: 3d2a3a5e
/model.16/m.0/m/m.1/cv1/conv/Conv_output_0: 3d42362c
/model.16/m.0/m/m.1/cv1/act/Sigmoid_output_0: 3c00011e
/model.16/m.0/m/m.1/cv1/act/Mul_output_0: 3d1b2928
/model.16/m.0/m/m.1/cv2/conv/Conv_output_0: 3dad7462
/model.16/m.0/m/m.1/cv2/act/Sigmoid_output_0: 3c0100c4
/model.16/m.0/m/m.1/cv2/act/Mul_output_0: 3da447ad
/model.16/m.0/m/m.1/Add_output_0: 3daa04bb
/model.16/m.0/Concat_output_0: 3daa04bb
/model.16/m.0/cv3/conv/Conv_output_0: 3d847ccb
/model.16/m.0/cv3/act/Sigmoid_output_0: 3bfefb85
/model.16/m.0/cv3/act/Mul_output_0: 3d0d3e62
/model.16/Concat_output_0: 3d0d3e62
/model.16/cv2/conv/Conv_output_0: 3d6a6f8d
/model.16/cv2/act/Sigmoid_output_0: 3bfe0fb9
/model.16/cv2/act/Mul_output_0: 3d04329d
/model.17/conv/Conv_output_0: 3d5ab206
/model.23/cv2.0/cv2.0.0/conv/Conv_output_0: 3d8e9c85
/model.23/cv3.0/cv3.0.0/cv3.0.0.0/conv/Conv_output_0: 3d56491b
/model.17/act/Sigmoid_output_0: 3c00896f
/model.23/cv2.0/cv2.0.0/act/Sigmoid_output_0: 3c00c31d
/model.23/cv3.0/cv3.0.0/cv3.0.0.0/act/Sigmoid_output_0: 3c00d715
/model.17/act/Mul_output_0: 3d343e64
/model.23/cv2.0/cv2.0.0/act/Mul_output_0: 3d498ff3
/model.23/cv3.0/cv3.0.0/cv3.0.0.0/act/Mul_output_0: 3d5601cb
/model.18/Concat_output_0: 3d343e64
/model.23/cv2.0/cv2.0.1/conv/Conv_output_0: 3ec86639
/model.23/cv3.0/cv3.0.0/cv3.0.0.1/conv/Conv_output_0: 3d675ebd
/model.19/cv1/conv/Conv_output_0: 3d758b45
/model.23/cv2.0/cv2.0.1/act/Sigmoid_output_0: 3c010204
/model.23/cv3.0/cv3.0.0/cv3.0.0.1/act/Sigmoid_output_0: 3c008172
/model.19/cv1/act/Sigmoid_output_0: 3c00ee15
/model.23/cv2.0/cv2.0.1/act/Mul_output_0: 3ec86639
/model.23/cv3.0/cv3.0.0/cv3.0.0.1/act/Mul_output_0: 3d322202
/model.19/cv1/act/Mul_output_0: 3d6ee7ec
/model.23/cv2.0/cv2.0.2/Conv_output_0: 3de96f52
/model.23/cv3.0/cv3.0.1/cv3.0.1.0/conv/Conv_output_0: 3dbf611e
/model.23/Reshape_16_output_0: 3e1d3a75
/model.22/m.0/m/m.1/cv1/act/Mul_output_0: 3d7e1c25
/model.23/Add_8_output_0: 3e810204
/model.23/cv2.2/cv2.2.1/act/Mul_output_0: 3ea1bc12
/model.22/Concat_output_0: 3d90d03e
ONNXTRT_Broadcast_365_output: 3e810204
/model.19/Split_output_0: 3d418a09
/model.19/cv2/conv/Conv_output_0: 3e19a0ef
/model.23/dfl/Transpose_output_0: 3de96f52
/model.23/cv3.1/cv3.1.1/cv3.1.1.0/conv/Conv_output_0: 3e6aa245
/model.19/Split_output_1: 3d6ee7ec
/model.23/cv3.0/cv3.0.1/cv3.0.1.0/act/Sigmoid_output_0: 3c00ff10
/model.19/m.0/cv1/conv/Conv_output_0: 3d1718e6
/model.19/m.0/cv2/conv/Conv_output_0: 3d9947da
/model.23/cv3.0/cv3.0.1/cv3.0.1.0/act/Mul_output_0: 3d965dc5
/model.19/m.0/cv1/act/Sigmoid_output_0: 3bfa196b
/model.19/m.0/cv2/act/Sigmoid_output_0: 3c00d15a
/model.23/cv3.0/cv3.0.1/cv3.0.1.1/conv/Conv_output_0: 3e45fe49
/model.19/m.0/cv1/act/Mul_output_0: 3cd7e37a
/model.19/m.0/cv2/act/Mul_output_0: 3d51edf3
/model.23/cv3.0/cv3.0.1/cv3.0.1.1/act/Sigmoid_output_0: 3c010204
/model.19/m.0/m/m.0/cv1/conv/Conv_output_0: 3d468787
/model.23/cv3.0/cv3.0.1/cv3.0.1.1/act/Mul_output_0: 3e45fe49
/model.19/m.0/m/m.0/cv1/act/Sigmoid_output_0: 3bfeb0a1
/model.23/cv3.0/cv3.0.2/Conv_output_0: 3e276569
/model.19/m.0/m/m.0/cv1/act/Mul_output_0: 3d0a1e49
/model.23/Concat_output_0: 3e276569
/model.19/m.0/m/m.0/cv2/conv/Conv_output_0: 3d48ebca
/model.23/cv3.1/cv3.1.0/cv3.1.0.1/act/Mul_output_0: 3dce401b
/model.22/cv1/act/Sigmoid_output_0: 3c00ecec
/model.19/m.0/m/m.0/cv2/act/Sigmoid_output_0: 3c00be21
/model.23/cv3.1/cv3.1.0/cv3.1.0.1/act/Sigmoid_output_0: 3c0101ed
/model.23/cv2.1/cv2.1.2/Conv_output_0: 3dc93de1
/model.23/cv2.1/cv2.1.1/act/Sigmoid_output_0: 3c010204
/model.19/m.0/m/m.0/cv2/act/Mul_output_0: 3d4711eb
/model.22/cv1/conv/Conv_output_0: 3d6d3a7f
/model.20/act/Mul_output_0: 3d6629a3
/model.21/Concat_output_0: 3d6982b1
ONNXTRT_Broadcast_269_output: 3e010204
/model.19/m.0/m/m.0/Add_output_0: 3d404367
/model.23/cv2.2/cv2.2.0/act/Sigmoid_output_0: 3c010105
/model.23/cv3.2/cv3.2.1/cv3.2.1.1/conv/Conv_output_0: 3e0ef9b8
/model.23/Range_4_output_0: 3e193265
/model.23/Constant_14_output_0_output: 0
/model.23/Constant_15_output_0_output: 3c010204
/model.23/cv3.1/cv3.1.0/cv3.1.0.0/act/Sigmoid_output_0: 3c0101da
/model.23/cv3.2/cv3.2.1/cv3.2.1.1/act/Sigmoid_output_0: 3c010204
/model.23/cv2.1/cv2.1.0/act/Sigmoid_output_0: 3c00ff48
/model.23/Unsqueeze_7_output_0: 3e9f3e7d
/model.20/act/Sigmoid_output_0: 3c00e7e9
/model.23/cv3.2/cv3.2.1/cv3.2.1.0/act/Sigmoid_output_0: 3c010204
/model.23/cv3.1/cv3.1.0/cv3.1.0.0/conv/Conv_output_0: 3dc4ac93
/model.23/Range_output_0: 3f1f3e7d
ONNXTRT_ShapeShuffle_151_output: 3c010204
ONNXTRT_ShapeShuffle_246_output: 3c010204
ONNXTRT_Broadcast_353_output: 3b810204
/model.23/cv2.1/cv2.1.0/act/Mul_output_0: 3d9794c7
/model.22/cv2/conv/Conv_output_0: 3d95d479
/model.23/Reshape_13_output_0: 3e1d3a75
/model.23/Unsqueeze_9_output_0: 3e1d3a75
/model.23/cv3.2/cv3.2.1/cv3.2.1.1/act/Mul_output_0: 3e0ef9b8
/model.23/Range_1_output_0: 3f1f3e7d
ONNXTRT_ShapeShuffle_161_output: 3c010204
/model.23/Unsqueeze_10_output_0: 3e1d3a75
/model.19/m.0/m/m.1/cv1/conv/Conv_output_0: 3d997855
/model.23/Reshape_output_0: 3e276569
/model.23/Constant_16_output_0_output: 3b810204
ONNXTRT_Broadcast_165_output: 3b810204
/model.23/Reshape_4_output_0: 3f204081
ONNXTRT_Broadcast_167_output: 3b810204
/model.23/Reshape_3_output_0: 3f204081
/model.22/m.0/cv3/act/Sigmoid_output_0: 3c00fdd7
/model.23/cv3.1/cv3.1.0/cv3.1.0.1/conv/Conv_output_0: 3e0111ae
/model.19/m.0/m/m.1/cv1/act/Sigmoid_output_0: 3c00ff17
(Unnamed Layer* 451) [Constant]_output: 0
ONNXTRT_ShapeShuffle_170_output: 0
/model.23/ConstantOfShape_output_0: 0
/model.23/Concat_6_output_0: 3e79eef5
/model.23/cv3.2/cv3.2.0/cv3.2.0.1/conv/Conv_output_0: 3dfbc644
/model.23/Reshape_12_output_0: 3e9f3e7d
/model.22/m.0/m/m.0/cv1/conv/Conv_output_0: 3d5173f2
/model.23/Reshape_5_output_0: 3f204081
/model.23/Reshape_6_output_0: 3f204081
/model.19/m.0/m/m.1/cv1/act/Mul_output_0: 3d968394
/model.23/Squeeze_output_0_output: 3d810204
ONNXTRT_Broadcast_175_output: 3d810204
/model.23/Add_2_output_0: 3d810204
/model.23/Expand_4_output_0: 3e1d3a75
/model.19/m.0/m/m.1/cv2/conv/Conv_output_0: 3e3941cc
/model.23/cv2.1/cv2.1.0/conv/Conv_output_0: 3db56ceb
/model.20/conv/Conv_output_0: 3d8b3f43
/model.23/Concat_20_output_0: 3e1d3a75
/model.23/cv3.1/cv3.1.2/Conv_output_0: 3e79eef5
/model.23/Reshape_17_output_0: 3e1d3a75
/model.19/m.0/cv3/act/Sigmoid_output_0: 3c010142
/model.23/Unsqueeze_4_output_0: 3f204081
/model.23/Concat_2_output_0: 3e50f716
/model.19/cv2/act/Mul_output_0: 3d98cf9e
/model.22/m.0/cv2/act/Sigmoid_output_0: 3c00b1c7
/model.23/Expand_output_0: 3f204081
/model.22/m.0/cv2/conv/Conv_output_0: 3d421450
/model.23/Expand_3_output_0: 3e9f3e7d
/model.19/Concat_output_0: 3dac20f6
/model.23/cv2.2/cv2.2.1/conv/Conv_output_0: 3ea1bc12
/model.19/cv2/act/Sigmoid_output_0: 3c00ff7d
/model.23/Transpose_output_0: 3f204081
/model.19/m.0/cv3/conv/Conv_output_0: 3e454662
/model.23/Slice_output_0: 3dd4dc31
/model.19/m.0/cv3/act/Mul_output_0: 3dac20f6
/model.23/Concat_24_output_0: 3f2077a8
/model.23/Expand_1_output_0: 3f204081
/model.19/m.0/m/m.1/cv2/act/Sigmoid_output_0: 3c010204
/model.19/m.0/Concat_output_0: 3e39fcde
/model.23/cv2.2/cv2.2.2/Conv_output_0: 3da9f546
/model.23/Slice_1_output_0: 3ddf4941
/model.22/m.0/cv1/act/Sigmoid_output_0: 3bfb7199
/model.23/dfl/Reshape_output_0: 3de96f52
/model.23/Sigmoid_output_0: 3bfbb995
/model.23/Unsqueeze_3_output_0: 3f204081
/model.23/cv3.2/cv3.2.0/cv3.2.0.1/act/Mul_output_0: 3d916e93
/model.23/Reshape_7_output_0: 3f204081
